#ifndef WEIGHTS_H
#define WEIGHTS_H

#include <stdint.h>

#define C1 8
#define C2 16
#define C3 32
#define NUM_CLASSES 10

const uint32_t WEIGHTS_CONV1_BITS[72] = 
{
  0x3D3780FE,  0xBED5CC0B,  0xBEEC1971,  0x3F8CC691,  0xBEE39C6F,  0xBD6DF2E6,  0x3E0174B3,  0xBF5CC567,
  0xBEBEF549,  0xBF5B7CFD,  0x3EA4D0B2,  0xBFE20C8B,  0xBFEED65A,  0xBEBB2695,  0xBF299BA7,  0xBF9EC4B0,
  0xBE4FE9E6,  0xBFAF4C86,  0xBF761897,  0xBF838E57,  0xBF9E0472,  0x3FEFDA26,  0xBF9EEEBC,  0xBF8A9014,
  0x3EBC049E,  0x3F9A2832,  0xBFFD29E6,  0xBFD009A4,  0xBE0DCF48,  0xBF75FFEC,  0x3FD6DE39,  0xBFBED0F7,
  0xBF739B87,  0x3F439A08,  0x3F895178,  0x3F3C6956,  0x3FC2F4FC,  0x3FB91E7B,  0xBF1E1B4B,  0xBF9DD9D0,
  0x3F6ECE0C,  0xBE88D84F,  0xBF9B4023,  0xBF5B5128,  0x3DB0A34E,  0xBF26F292,  0x3FD707BF,  0x3F39F18F,
  0x3F9C5B73,  0x3F816D13,  0xBE98FB16,  0xBF2434B9,  0xBFC08C01,  0xC03F770E,  0xBF8B4DC4,  0xBFA179A9,
  0xBF0C3A00,  0xBFC2AEB5,  0xBF9C0EFF,  0xBEC80653,  0xBFA7F305,  0xBFF5E731,  0xBF2FD77F,  0xBF0D4B02,
  0x3F465C4E,  0xBFBEEA02,  0xBF4CDCA2,  0x3FB016D4,  0xBF3D53C1,  0x3F94800D,  0xBE45E5AF,  0xBF388826,

};

const uint32_t BIAS_CONV1_BITS[8] = 
{
  0xBCAB9356,  0x3FC18719,  0xBBDC9C76,  0xBB735C6C,  0xBD165220,  0xBD75782E,  0xBE1B3015,  0xBCCB056A,

};

const uint32_t WEIGHTS_CONV2_BITS[1152] = 
{
  0xBD2DC22E,  0xBDA54427,  0xBD4A2AC1,  0xBD2C02D4,  0xBCA27175,  0xBE212AE8,  0xBCFF1274,  0xBC814CE1,
  0xBE8B5C10,  0xBE1F2F9F,  0x3E0109F5,  0xBE1CF0C9,  0xBE626EC9,  0xBEA105E9,  0x3E5F6FEB,  0xBE6675BE,
  0xBEC97DC2,  0x3DC6CBA5,  0xBDE71D3D,  0xBE4B01E2,  0xBEDEF01A,  0xBC307845,  0xBDC8B0BF,  0xBD29C7F5,
  0xBDC46313,  0xBC9B7C21,  0x3AE13B9D,  0x3C81A8AB,  0xBEFCA2C4,  0xBF4047F7,  0xBE676E00,  0xBEE44837,
  0x3CB3AC8A,  0xBEB1A18D,  0xBF1778F3,  0x3E8A2819,  0xBE0478A3,  0xBD9A5C0C,  0xBE90AAC6,  0xBD89061E,
  0xBB970D19,  0xBE43D824,  0xBD8F449D,  0x3E97C2CD,  0x3EF3AE19,  0xBEB81B80,  0x3D9CD177,  0x3DDFEA32,
  0xBECCE3F0,  0xBF7863AB,  0x3F8C1A99,  0xBEAA4372,  0xBF8FEBDE,  0xBF80A2B2,  0x3E29F508,  0xBEF22B27,
  0xBE3F3F02,  0x3DE3AC8F,  0xBE5AA088,  0xBE99ECA0,  0x3F84AE40,  0xBDD62B0D,  0xBE7AF221,  0xBC4E0A60,
  0x3D65AB5E,  0xBE3DCEC5,  0xBC44C622,  0xBDDA0D1A,  0x3F30078B,  0xBE169624,  0xBE7BC916,  0x3DE08D70,
  0xBDAE10D9,  0x3E32AA75,  0x3E419048,  0x3D54A4AC,  0x3E2EC5BA,  0x3DD2C6C7,  0x3D68F6CF,  0x3D0A3158,
  0x3C2DB35A,  0x3DCC4961,  0x3F1DB8E7,  0xBB8341D5,  0xBE3E0896,  0xBDB21990,  0xBE787464,  0xBEDC4A25,
  0xBEE49AA7,  0xBD2CEA0F,  0xBE3C774B,  0x3E343DDC,  0x3E40AE41,  0xBE301355,  0xBE00AC10,  0xBE295253,
  0xBE60EAE1,  0x3D872CE4,  0x3EB20BC2,  0xBEF01043,  0xBEA40AEB,  0x3E19EC7D,  0xBEC61153,  0xBE86CB4A,
  0xBEA8AECF,  0xBE696912,  0x3D09DBF5,  0x3E90819A,  0x3D8386F5,  0x3EC1D33F,  0x3CA88951,  0xBE44B763,
  0xBDD7D15A,  0xBE7F21DE,  0xBE4825C2,  0xBE3F0C88,  0x3E89253E,  0xBEB9B4B3,  0xBEDC01DB,  0xBEF38D84,
  0xBE54F29F,  0xBE6E9EB3,  0x3E6DB489,  0x3EB6B499,  0xBF202570,  0xBF2DD505,  0x3D658FE8,  0xBDEBCB33,
  0xBE34A2EB,  0xBED58824,  0xBDCFF6ED,  0x3C0A61F6,  0x3E962985,  0xBE655AF3,  0xBE9EAC18,  0x3E23299D,
  0x3E921FB5,  0x3E824D71,  0xBCA796BF,  0x3E959D5D,  0x3DF78D3E,  0xBEBB4C0D,  0xBE2114E8,  0x3DB298D9,
  0xBEA5F5B2,  0x3E88808C,  0x3EEA557E,  0x3EEE3BAC,  0x3CE36D8A,  0xBDFA52F8,  0xBDBE6982,  0xBEDE255A,
  0xBE64AE5A,  0x3F343B9D,  0x3EADFC6F,  0xBE42836C,  0xBEBBF676,  0xBE28F68B,  0xBE50085E,  0xBEBA0C90,
  0xBE2F2426,  0xBD8422C0,  0xBF2F05AD,  0x3EA5BB7B,  0x3D001232,  0x3F0CF78E,  0xBF17B4C8,  0xBEBF0EEE,
  0x3D318649,  0xBEFCDA99,  0xBE05BEC1,  0xBF73895B,  0xBF1AE276,  0xBF68CC17,  0x3F080C4E,  0xBC9E34B0,
  0x3F63D742,  0xBEA1CC2D,  0xBE07D67E,  0x3D1783D2,  0xBE3DD335,  0xBD194A78,  0xBF1C32C3,  0xBF387CFD,
  0xBE18B34C,  0x3EC2456A,  0x3EBA6FC2,  0x3D5CCA3B,  0xBF215B3B,  0xBF8ED099,  0xBB9A6B66,  0xBF11C5E0,
  0x3F625C44,  0x3EBBB036,  0x3F3AB855,  0xBF6A0C6A,  0xBF833F7F,  0xBF5A2B28,  0xBB758DFC,  0xBE547666,
  0xBE44DC30,  0xBE823F85,  0xBD6C2B9B,  0xBC6001B9,  0x3EE37684,  0xBE61CD47,  0xBEBF0892,  0x3F220D49,
  0x3F25B743,  0xBEED675B,  0xBE9D6541,  0xBEF2954D,  0xBF1BF00F,  0xBEE81DD4,  0xBF141626,  0xBE60F908,
  0xBDCEA95F,  0xBD42814B,  0xBE0B0F64,  0x3E5E7C10,  0xBCDDE6DF,  0xBE20069A,  0x3CEB3179,  0x3DD83C19,
  0x3DF95BA8,  0xBE93AC13,  0xBC0F4B78,  0xBED96F72,  0xBEF2A56A,  0xBF2AE9BE,  0xBF2CFBA4,  0xBE9F6690,
  0xBE680EE3,  0x3D9DF506,  0xBE24E1E5,  0xBD9F8EB4,  0xBDC5356E,  0x3E46CA30,  0xBE8C638F,  0xBEB851C7,
  0xBEDDED39,  0x3E0A4FFF,  0xBE5606AA,  0xBE3B449B,  0xBE0F9A1A,  0xBD53E170,  0xBF136CE1,  0xBF1DA495,
  0xBEDEC43D,  0xBFCCD110,  0xBF51D753,  0xBDB09222,  0xBDADBF5E,  0x3F31D545,  0x3F33710C,  0xBF287EB3,
  0xBF525BD9,  0xBF14598F,  0xBECFFDEF,  0xBF16BAB0,  0xBEB9C72B,  0xBE75E971,  0x3EF77FBC,  0x3F680042,
  0xBF3693A1,  0xBEF17132,  0xBE869EEB,  0xBF1DDEDA,  0xBEF47790,  0xBEA8D56F,  0x3F29083E,  0x3F21EF2E,
  0xBE5F89F6,  0xBF409D48,  0xBF51F61A,  0xBF13A108,  0xBEC98AC0,  0xBE881961,  0xBEB850BE,  0xBE119519,
  0xBE63FA90,  0xBF36592F,  0xBE9E5B9E,  0xBF032770,  0xBF392F9F,  0xBEDE4D90,  0xBEA27454,  0xBCA840E0,
  0x3DA6365E,  0xBE026568,  0xBEB1521C,  0xBDA4039C,  0xBD1301AF,  0xBDBEBC8A,  0xBE8579C9,  0xBD930733,
  0xBD96CFCC,  0xBE5A93CE,  0xBEF20C7C,  0xBF68A26C,  0xBEA4B908,  0xBEF6BB94,  0xBEB1332C,  0xBCCDF853,
  0xBE5E96AB,  0x3E57955A,  0xBE58333C,  0xBD16E03C,  0x3F8CD65F,  0xBE52B874,  0x3D2691D4,  0x3F1FD47B,
  0xBEB8C2C7,  0xBBF16B40,  0x3E24B6FF,  0xBE361107,  0xBEC0A055,  0x3F857A6E,  0xBF071676,  0xBF238282,
  0xBEDA087F,  0xBF01972B,  0xBE8B5682,  0xBE642135,  0xBEC58BA7,  0xBEDAC654,  0xBF1EC921,  0x3EA6A8A0,
  0xBA5C25B7,  0xBE3A33E8,  0xBEF87EFE,  0xBEFBB8B9,  0x3DBE57CE,  0xBE8AD032,  0xBF70B996,  0xBF0624D7,
  0x3FC0E8A6,  0xBF91589D,  0xBF391CC6,  0xBF4857CF,  0xBF6F08B1,  0xBF38E281,  0xBE8D3E34,  0xBE60725E,
  0xBE30654C,  0x3C9943F2,  0xBE0A4CD4,  0xBEBD60D6,  0xBE2E687A,  0xBE0DB585,  0xBED053A8,  0xBEAA1D65,
  0xBF2E7B81,  0xBC8C1984,  0xBF06C0CE,  0xBEC66C3A,  0xBEA63040,  0xBE9131F9,  0x3D7F6272,  0x3F5F6C0F,
  0xBECFA3C1,  0x3D70BDE8,  0x3D28D612,  0xBEADC3E9,  0xBE8EFC00,  0x3DDAB631,  0xBDFE2C27,  0x3C74C877,
  0x3EB0F952,  0x3B5E0187,  0x3DD1C883,  0xBE4E1C57,  0xBF99690B,  0xBF8B9170,  0xBE2574C1,  0x3E44A719,
  0xBDF63ACA,  0xBEAE4A27,  0xBF9759F1,  0xBF1B62D0,  0x3DF2CF68,  0xBE369BB6,  0x3F322236,  0xBEA47073,
  0xBEAB7057,  0x3F12D615,  0x3F7CADB2,  0xBF169335,  0xBF799AB0,  0xBE37308A,  0x3E7D6D1F,  0x3F6D02CA,
  0xBF32BE04,  0xBF7A0093,  0xBED9376A,  0xBE1785BC,  0xBECFDD7A,  0x3D92C8C6,  0xBDE331F7,  0xBEFE97CB,
  0xBF176AC1,  0xBEAE17BF,  0x3EEC4710,  0x3E80D301,  0xBE27DC95,  0xBF099215,  0xBDDC302C,  0xBD96F664,
  0xBED6120B,  0xBD29F935,  0xBF474A2C,  0xBFC3D847,  0xBF3E639E,  0xBF480117,  0xBEC06FB3,  0xBEF31339,
  0x3D38FA69,  0xBE849B74,  0xBE0BAF80,  0xBE386047,  0x3D8757FE,  0xBDC1EC69,  0xBE4237A5,  0x3D48D237,
  0x3F27A487,  0x3DD4E4B2,  0xBF36337B,  0x3E6C55B6,  0x3E17E7AE,  0xBEC3D931,  0xBF609D40,  0xBE7691A4,
  0xBD33C37E,  0xBD8DC85E,  0xBE077D3B,  0xBCC54FCB,  0xBE040FE7,  0xBDE78FA1,  0xBC27FD6E,  0xBDF37BB1,
  0xBDE3F49F,  0xBE3CE323,  0xBECBD775,  0xBE947657,  0xBEB64639,  0xBF358701,  0xBF2B0F10,  0xBEDA65E5,
  0xBEAD4A69,  0xBF4BADB0,  0xBD9201FC,  0xBDE5BB0C,  0xBE656884,  0xBD0ABC30,  0xBE059E06,  0xBE54BAD8,
  0xBD723EAA,  0xBE42BE61,  0xBE107655,  0xBE33BE54,  0xBEBACF8E,  0xBF537979,  0xBE75967E,  0xBED14BE1,
  0xBF27CB0E,  0xBEA3B167,  0xBE9E43DE,  0xBEE0DFD5,  0x3D638039,  0xBEB6095C,  0xBE13A541,  0xBE68049D,
  0xBCF2EA64,  0xBDCA8177,  0xBEA7E8A8,  0xBE94137F,  0xBEDCFAF9,  0xBED5B2B2,  0xBE811131,  0xBE542113,
  0xBE9EC973,  0xBE55F0C5,  0xBF0CF518,  0xBEF33131,  0xBEEBEF30,  0xBF486FAC,  0xBEAC3DC1,  0xBE6935E1,
  0x3F7BB05E,  0xBE768293,  0xBEB5B55A,  0x3F35A641,  0xBE93E21E,  0x3C72C0E2,  0x3E4D1381,  0xBE27DB6E,
  0xBE271129,  0xBE12435C,  0xBE31EA55,  0xBE66F4DA,  0xBE62F970,  0xBE8D0FFA,  0xBE8F4CFC,  0xBE997AA7,
  0xBD3873FC,  0x3D3266B8,  0x3C3E3D44,  0x3DDAF70E,  0xBC23E3CA,  0xBE0D347B,  0x3C327254,  0xBDB46672,
  0xBE5278A0,  0xBEB03399,  0xBDAABDEF,  0xBDD9A21A,  0xBEF88EE1,  0xBECA98D3,  0xBF53A451,  0xBDF7D73F,
  0xBEE99DB2,  0xBF14237D,  0xBDDE0328,  0xBE4222ED,  0xBEA0E1C1,  0xBDCD2993,  0xBDCEE9F0,  0xBC627FB6,
  0xBDFFAEBB,  0xBDE7C9DE,  0xBDCF2A92,  0xBE743F77,  0xBE9580ED,  0xBDC3C7EF,  0xBDFCDAEE,  0x3D800FE6,
  0xBE6680C8,  0xBDDB7346,  0xBEAB1DA4,  0xBE84F33E,  0xBED9C143,  0xBEBF779E,  0xBEEE79D1,  0xBEA9A2BF,
  0xBEC16F61,  0xBE2B0A7C,  0xBE8E5F62,  0xBEDC3BD3,  0xBEE7DCE5,  0xBF831703,  0xBFA7B4F7,  0xBFA62B8E,
  0xBF3B4465,  0xBEA59BBE,  0x3D7CDFBD,  0xBF91A9B4,  0xBF6F88E6,  0xBEC3D348,  0xBF7B9523,  0xBFF09870,
  0xBFE3E44F,  0xBE891ACA,  0x3ED1599F,  0x3D221DAE,  0xBF072DF1,  0xBEDC6A4E,  0xBF9569BF,  0xBC269BBF,
  0xBDAA87DC,  0xBE999A7E,  0xBE217618,  0xBEA18E63,  0xBF02721D,  0xBD8C9C95,  0xBE8D156E,  0xBE574011,
  0xBE3598CA,  0xBE5B9C72,  0xBC106E94,  0x3E339F44,  0x3D2191B2,  0x3CBFA01A,  0x3ECF88C6,  0xBE5A3C2A,
  0xBDDB55E2,  0xBDFF70D7,  0xBEA7AF9C,  0xBE0279B1,  0xBE37CEE8,  0x3F000CCA,  0xBDAD329C,  0x3DD1E9D7,
  0xBE848682,  0xBE145128,  0xBE3A85B1,  0xBED488CC,  0x3FA7266E,  0x3EF1C68F,  0xBE8FBDB3,  0xBEBE2FBD,
  0x3F31DC01,  0xBE828595,  0xBEF1EAC5,  0xBF4C5E79,  0xBF4FDA89,  0x3F4DC096,  0x3F40AAA7,  0xBF6499CB,
  0xBEFF29DC,  0x3F22524A,  0xBEBD9C6D,  0xBD3A2DED,  0xBD8148E3,  0x3EBF95C3,  0x3D7D0964,  0xBF1DC38A,
  0xBDFC6A76,  0xBF061221,  0xBF195E44,  0xBE97482B,  0xBF0430CE,  0xBF312F40,  0xBE25C80F,  0xBF3D369A,
  0xBF8DAEF5,  0xBF456267,  0xBEE17357,  0x3D871E0A,  0x3EEBD6AA,  0xBEB5914D,  0xBF016A0A,  0xBE63F4B6,
  0xBDDE6251,  0xBEDFF1AB,  0xBE2BB53B,  0xBE80A301,  0xBF159012,  0xBF1D0C7C,  0xBE13C83E,  0xBE8591EE,
  0xBDA10590,  0xBEABA732,  0x3E5FB4E0,  0x3D9370C0,  0x3D310833,  0x3E3C85ED,  0x3E83B35B,  0x3E251026,
  0x3D6D00A5,  0x3E69FC7D,  0xBDB8DB31,  0xBBDF29F8,  0x3D59953D,  0xBD6F1D1B,  0xBE6295A3,  0xBB8A3F02,
  0xBD990AAC,  0x3E3ED6A0,  0xBD4F8539,  0xBEC08362,  0xBF0C00C6,  0xBE29F727,  0xBE9DF878,  0x3E552A9C,
  0x3D811C31,  0xBE74FA24,  0xBE221239,  0xBE592195,  0xBE9EFEBA,  0xBD5B2445,  0xBE2D771F,  0x3F0127C1,
  0xBDE50B2D,  0x3E40FBD4,  0xBDBC2563,  0xBECF3F6E,  0xBE64872B,  0xBF12A749,  0xBC5DC0D0,  0xBE6AA37E,
  0x3EEE4481,  0xBE56338E,  0x3DBB352B,  0xBE3193C9,  0x3D77422D,  0xBE9C2BE6,  0xBF28DF25,  0xBE949C36,
  0x3EEEBACF,  0xBCC0E102,  0x3EAC17F9,  0x3E310925,  0x3F13C8F8,  0xBF3844C3,  0x3DC88DB8,  0x3F7F6D4B,
  0x3F0A031C,  0xBFAE53BD,  0xBF08DBD7,  0xBF46AF40,  0xBF12D6D0,  0xBF0591F6,  0xBDFE057D,  0xBED1FB01,
  0xBE1D7A84,  0x3EBD5F23,  0xBEB86C54,  0xBEA79F71,  0x3D969083,  0xBE4EC06B,  0xBE265DC2,  0xBDC41617,
  0x3E08F685,  0xBEEA3E3F,  0xBF05E2F9,  0xBDC3BEBA,  0xBE1D8660,  0xBC9F0922,  0xBE888154,  0x3F07C24C,
  0xBC8C7D10,  0xBD1ACD69,  0xBD89AA53,  0x3D992571,  0xBD69D8B2,  0xBD7AA5D0,  0x3D5A7A07,  0xBD818A7C,
  0xBD6DD568,  0xBDAE84A8,  0xBCA2D0B8,  0xBE3F3E4D,  0xBDE02DC9,  0xBDE40FB8,  0xBE24FF6A,  0xBE1F02B6,
  0xBE10E815,  0xBD187451,  0xBD82B0B0,  0xBD5DE088,  0xBD9A9BB7,  0x3DA496D4,  0xBDA8CFFE,  0xBC5945B1,
  0xBDE91CFB,  0xBDE02544,  0xBE17891F,  0x3C814034,  0xBD61EE3D,  0x3D19EA52,  0xBDD07705,  0xBE75F3E7,
  0xBD85BF95,  0xBE2055BB,  0xBE14C8E6,  0xBE2BB898,  0xBD4E11E1,  0x3E706948,  0x3E0E8D9E,  0xBE5F8A97,
  0xBDFA6B85,  0xBE1D25B9,  0xBDACD6C4,  0xBE1FB94D,  0xBDC39988,  0xBCAFBBE3,  0x3E504F98,  0x3E8E3609,
  0xBEC4B7F7,  0xBE10AA39,  0x3D170FEF,  0xBE7274B0,  0xBE4869E7,  0xBE518D48,  0x3C5FF5B6,  0x393861BC,
  0xBD98CDFC,  0xBE647EEB,  0xBD088D26,  0xBD014913,  0xBE2A33D2,  0xBD71ADA5,  0xBD52D303,  0xBD18530D,
  0xBD6DC85F,  0xBE4D40C0,  0xBE089303,  0xBDB1BB03,  0xBE27531E,  0xBE46603A,  0xBDDEDE79,  0x3C835AD6,
  0xBCF64654,  0xBCDFBDFE,  0xBBE1CFB8,  0x3D38361C,  0xBBC4FADD,  0xBDE0D6BE,  0xBCEAB602,  0xBE04D21A,
  0xBDC93559,  0xBC5D70CD,  0xBDCE1788,  0xBD4F64D2,  0xBC90BB6C,  0xBCC9F8E6,  0x3E79FFDE,  0x3BB50C2F,
  0x3D4AB4D2,  0xBAECBF81,  0xBD593055,  0xBDD7513B,  0xBE54B683,  0xBE18F4A8,  0xBE37C509,  0x3DFC6017,
  0x3D2EAE21,  0xBE12A079,  0x3D9D7389,  0xBDF4CB59,  0x3D0C04F4,  0xBE81028B,  0xBC62A17C,  0xBBBE20E1,
  0x3DCDDB38,  0x3F95AE4B,  0xBF01DAD1,  0x3E3884E8,  0xBE48B37D,  0xBE68C0D7,  0xBE496597,  0xBE76FC49,
  0xBE8AA3C4,  0xBE5B0B02,  0xBE1A0581,  0xBE5B4225,  0xBE0F3EF0,  0xBEC32789,  0x3E361F40,  0xBEAA4C37,
  0xBC57DF01,  0x3D669E1F,  0xBDF988B4,  0xBE80FC8E,  0xBE0D46EF,  0x3D948A13,  0xBD927557,  0xBDD39C36,
  0xBCA5CB3B,  0xBDC1DC24,  0xBCE6321E,  0xBD83072A,  0xBCAD1088,  0xBE040727,  0xBD459FAB,  0x3BCFBB36,
  0x3DB01969,  0x3BB4F766,  0x3EB08794,  0xBE13DF13,  0x3EC80E88,  0xBDA5E364,  0x3D6FB0A0,  0x3F6AF768,
  0x3E867C19,  0xBE519EE5,  0xBD80EFDB,  0xBDB0D229,  0xBE094020,  0x3CA1FC9F,  0x3C3A4630,  0xBDFC555E,
  0xBD34CADA,  0x3D901576,  0x3E8058C2,  0x3E8BA6A1,  0xBDEAC074,  0x3DF3BBF6,  0x3DE36D2E,  0x3DD97829,
  0x3E01FA88,  0x3DB5F7CB,  0xBDF7D225,  0xBEE514D9,  0xBE7A4D26,  0x3DC819D0,  0xBE66CEC2,  0xBE6F3C44,
  0x3EFBB6B7,  0xBE7453F3,  0xBE153031,  0xBE74A52F,  0xBEA509A2,  0xBE882EB4,  0xBDA08DAA,  0xBE999D77,
  0xBE6348DD,  0xBD639AF0,  0xBE5FB36E,  0xBDCE374D,  0x3FB8DDBE,  0xBECAC2F3,  0xBEAE0467,  0x3D8106A2,
  0xBEEE2407,  0xBEA7E0AF,  0xBE2FB340,  0xBE692E27,  0xBE90F831,  0xBEFD634B,  0xBEE07B47,  0xBEE9AD46,
  0xBF0694C9,  0xBE917DF3,  0xBE19AA81,  0xBE4F3703,  0xBE5B1BFC,  0xBF0953E0,  0x3DA59EFA,  0xBD665D97,
  0xBDB755E0,  0xBE8575D4,  0xBE564485,  0x3BB98F28,  0x3AFCE3B8,  0xBDA6C489,  0xBE9AF38E,  0xBDC2C178,
  0xBD8EECBF,  0xBC73C882,  0x3CB0A33C,  0xBE216D2E,  0xBE6BC6D8,  0xBE4627B2,  0xBECD0A6C,  0xBE9A11C5,
  0xBF1DC53F,  0xBE434846,  0xBEA9F1CB,  0xBF01B3AA,  0xBE9AAB4A,  0xBE851F4D,  0xBEAA2879,  0xBD24192A,
  0xBE050B61,  0xBE9BB36E,  0xBDFE32AB,  0xBED1AFB0,  0xBF8D87B6,  0xBF4E7497,  0xBF1CA965,  0xBD00417A,
  0xBF12BAA7,  0xBF0A500A,  0xBF79301D,  0xBF457309,  0xBF18D0E1,  0xBF744582,  0xBE1EBB3F,  0xBD403F57,
  0x3EBB69E5,  0x3E9D098F,  0x3F853870,  0xBF82B73D,  0xBF4CABAC,  0xBF104D3B,  0x3F03C34D,  0x3F31B3EF,
  0x3DA6838D,  0x3F0062B4,  0x3E34CBCC,  0x3E21516A,  0x3DBB5A57,  0x3D161455,  0x3EC37036,  0xBE370711,
  0xBEEA714C,  0xBEC78C31,  0xBE8279C4,  0xBF0AC52B,  0xBEBFE6E2,  0x3E2BF8B3,  0x3E927019,  0xBF385F2A,
  0xBF956803,  0xBF20E554,  0xBEACDB18,  0xBF5D4141,  0xBF788678,  0xBF971C9C,  0x3E012BCB,  0xBE1EB880,
  0x3E0105DC,  0xBEA0FF32,  0x3DA9CEC5,  0x3DB6FA28,  0xBF0E8425,  0xBE8B16B2,  0xBE706900,  0xBF7DD6A4,
  0xBF07BA3B,  0xBEC1E550,  0xBE51CE53,  0x3B8A79E5,  0x3DE8FFBD,  0xBEF5C2A0,  0x3E843769,  0xBDB5930C,
  0xBE0658C1,  0xBD551D67,  0xBE24F9E6,  0xBD358982,  0x3C1A6967,  0xBDDA316F,  0x3C2D50FC,  0xBD8C55B7,
  0xBE576FBB,  0x3BD1EE58,  0xBF19AA8B,  0xBF80F48D,  0xBDC77D13,  0x3DA6187A,  0xBE81DC0B,  0xBDFDC78D,
  0x3E831F42,  0xBC4F1AAA,  0xBDB63030,  0xBE32C50D,  0xBF5BD5A3,  0xBD1D2BE5,  0xBECEAADE,  0xBE230BA9,
  0xBD9A9FB8,  0xBDE1BEC4,  0x3F287663,  0xBEC62EE2,  0xBF00B80D,  0xBF65ED1A,  0xBF031E6D,  0xBF7613E6,
  0x3E0E46F7,  0xBF1F0937,  0xBF8D4E12,  0x3F548229,  0xBD6FF2C3,  0xBF2E2E6A,  0xBFA48F5C,  0xBEF60785,
  0x3E26841C,  0xBF93A7AF,  0xBEA466E9,  0x3F85A702,  0x3E2F6438,  0xBF2F7866,  0x3F0276CB,  0x3F15E4A9,
  0xBF4A42FE,  0xBF231C51,  0x3D0AA2CF,  0xBEF56E06,  0xBF5266FE,  0xBF7B681E,  0xBD4CA54C,  0xBF2A483A,
  0xBECFEB6B,  0x3E14343D,  0xBF2B0123,  0xBEC710C6,  0x3F6C5D03,  0xBE3DA22B,  0xBE839A17,  0xBB200574,
  0xBEC12782,  0xBF1081A9,  0xBD96630C,  0x3EE1597C,  0x3E98445A,  0xBE1B437C,  0xBE097D6B,  0x3DE2086E,
  0xBD0B9A63,  0x3E9D77AC,  0xBE93CAAB,  0xBDAA8AC2,  0x3E3F76DB,  0xBDF19E31,  0xBE0D9D05,  0xBE8836DE,
  0xBD8DB00B,  0xBD22BD89,  0x3DE7506C,  0xBD6354BD,  0x3F946AA9,  0x3F848163,  0xBC733F8B,  0xBDFB7FC2,
  0x3E549D95,  0x3ED20A6E,  0xBF217D1B,  0xBE39D742,  0xBEE97A22,  0xBE997D0E,  0x3F9DECD5,  0xBEBEFF90,
  0xBDE487B2,  0xBEDC21AA,  0x3F26D415,  0xBF63F049,  0xBE61A1F0,  0xBE9231CE,  0xBFC33DB9,  0xBE51C479,
  0xBF88C875,  0xBF7A5132,  0x3C11BCDD,  0x3FC50CB6,  0x3E35C333,  0xBF254275,  0xBEBB9EE4,  0x3E19083E,
  0xBF0504D6,  0xBEB23721,  0x3E5A7026,  0xBF46B7B7,  0xBE45159D,  0xBD4CAEC8,  0xBF6F7FE9,  0xBEF70121,
  0xBF012EBE,  0xBF54336C,  0xBF3728BB,  0xBF4C5515,  0xBF12D1C3,  0xBF1A3810,  0xBE947A7E,  0xBE99448E,
  0x3E4F646A,  0xBE70C306,  0xBE8C8AE6,  0xBDBC4B0E,  0xBE0CE3F0,  0xBE6AF715,  0xBEC9F662,  0xBE908E2F,
  0xBEE56561,  0xBF12E5FD,  0x3E418072,  0xBE981C92,  0x397933B7,  0xBD1CFC68,  0x3DE645CF,  0x3CFD5074,

};

const uint32_t BIAS_CONV2_BITS[16] = 
{
  0x3C52CCF5,  0xBE3D4940,  0xBDA00F1C,  0xBE6CC48D,  0xBE96B6A8,  0xBEB74A47,  0x3F4EAD8D,  0xBD124029,
  0xBE2D9C15,  0xBE88E7B3,  0xBD74EB18,  0xBD8B81C3,  0x3E28A58C,  0xBECADCCC,  0xBE09222B,  0x3F8D0E09,

};

const uint32_t WEIGHTS_CONV3_BITS[4608] = 
{
  0x3D0FC2A8,  0x3DE04857,  0x3DAB1065,  0xBDF10E3F,  0x3DB84BEA,  0xBD316A60,  0x3E597645,  0x3D9B2E60,
  0xBDD94EE8,  0x3D8EECD5,  0x3B8B5091,  0xBD30CF83,  0x3D32E077,  0xBD9D11C7,  0x3CE43804,  0x3E02E54E,
  0x3E582079,  0x3C3F1FDE,  0xBE1BC425,  0xBE67A82C,  0xBEA71D6C,  0xBE90F1A1,  0xBE43C35B,  0xBE8D5AC0,
  0xBD6F9869,  0xBDE62A6C,  0xBE0A3530,  0xBDA2D73D,  0xBD0B5198,  0x3DBEE6A7,  0xBE780ED9,  0xBE12B65B,
  0xBD9646B6,  0xBE886AAF,  0x3C9015BB,  0xBD3EADF2,  0x3CBDDA39,  0xBE7BDFD8,  0x3E0D8E7D,  0x3DCEEF1F,
  0xBDAA7C85,  0x3E6BFB4C,  0xBC75112B,  0x3B510A52,  0xBE5B5EB3,  0xBE4F0CC2,  0xBE42C51D,  0xBDAA12E3,
  0xBE13AD69,  0xBDDC4BDD,  0xBD41E8D3,  0xBE0A999C,  0x3B3DC20C,  0xBD83A6D9,  0x3E0255B2,  0xBDAAC1C8,
  0xBD3272C3,  0x3E33A089,  0xBE6BDFA3,  0xBDDBE0E1,  0x3E1FD5E6,  0xBE0C6DC1,  0xBE00E3E3,  0xBCC1ADDB,
  0xBE00E1AB,  0xBE0E8D1D,  0xBD974FEC,  0xBDBAB8DF,  0xBDCD0662,  0xBDD64EB7,  0xBDE0CFAF,  0xBE2E7A6F,
  0xBE71FEDF,  0xBDAD93F7,  0xBE9B8CC6,  0xBE033F54,  0xBEB5B297,  0xBE85A8E7,  0xBEA8F5AC,  0xBE658F77,
  0xBDEBB10C,  0xBD9A6A02,  0xBA6D1558,  0xBE6FE822,  0xBE6149C3,  0xBDA124A3,  0xBE8941DD,  0xBE022180,
  0xBDFA6B95,  0xBE3093DE,  0xBCB65AEA,  0x3D26D63B,  0x3D3320A4,  0xBB8114E4,  0xBCECA6CE,  0xBA5C792A,
  0xBD8BE80D,  0x3DE5100A,  0x3D851547,  0x3DD22714,  0x3DDDD14A,  0xBCF1C1B9,  0x3E21A2F4,  0xBC54A789,
  0xBDEBF628,  0x3D882B90,  0x3CBAED8C,  0xBD0A3791,  0x3EBDC03A,  0x3E59705C,  0x3D3D89C2,  0x3D8EAFCE,
  0xBD757694,  0xBD4A445D,  0x3D6CA48B,  0xBDABB440,  0x3D181F9C,  0xBE8B99DE,  0xBE3F332E,  0xBE94A227,
  0xBE4A6A79,  0xBE88A992,  0xBE074545,  0xBDAD06A6,  0xBE29B166,  0xBD0D422C,  0xBD894D9D,  0x3DC2CDAA,
  0xBE4AF5BA,  0x3EA73D20,  0xBE4C5BCA,  0xBE29123F,  0x3EC95241,  0x3D8B377F,  0xBCA0FDB6,  0x3F037FBC,
  0x3D947C91,  0x3E89248E,  0x3E2C59BC,  0xBCB66F82,  0x3DF49B11,  0x3E642A45,  0x3EA52DFA,  0x3EFF4E4D,
  0xBD8810FB,  0xBE2B2CC9,  0xBE3CEFB3,  0xBDAD73D2,  0xBE56B1EA,  0xBE8E2DF6,  0xBE1737F7,  0xBE5FAE21,
  0xBE534D15,  0xBDB27035,  0x3BD8ED52,  0xBDDC45EC,  0xBD4C579F,  0xBE25FB73,  0xBDA86B2B,  0xBCBE7C09,
  0x3B6EA71D,  0xBBBF88AF,  0xBEC7FF31,  0xBEDF5E98,  0xBED82524,  0xBE6E3CF4,  0xBE3A293B,  0xBED902E8,
  0xBEDB5DAE,  0xBEA9CA46,  0xBE926FE6,  0xBCD3375E,  0xBE627CF3,  0xBEAFD90C,  0xBEF55347,  0xBEA2EE5C,
  0xBEDFE80B,  0xBE8778A7,  0xBE1C15B0,  0xBE805ACD,  0xBE8A881C,  0xBE4D230B,  0xBE416E1B,  0xBDE01EAD,
  0x3E44FAB3,  0xBE39FE1B,  0xBE787397,  0xBE0CFD91,  0xBE20E06F,  0xBE4D884B,  0xBE3324C1,  0xBE2F9976,
  0xBE2334CD,  0xBDCA8040,  0xBE25A725,  0xBE495345,  0xBE87254D,  0xBDC5F606,  0xBE2E1DFA,  0xBEA1BE4C,
  0xBDD418CF,  0xBE1AF0C9,  0xBEAC8E07,  0xBD45A20B,  0xBDEC5341,  0xBE6C932E,  0x3A8DFFC5,  0xBE0AA29C,
  0xBE1B1066,  0xBE8B7FD9,  0xBE5AA4C7,  0xBE8003FB,  0xBECB0ABA,  0xBE9EE36B,  0xBE225777,  0xBE7CAFE9,
  0xBE8172BE,  0xBF0EA2DC,  0xBEFB2502,  0xBD9B4628,  0xBEEC89FB,  0xBEBF9C25,  0xBEF17AA9,  0xBE7B5B85,
  0xBE776DAC,  0xBE7EAC4D,  0xBE1FE559,  0xBEACE1D7,  0xBE115A11,  0xBD8A4BBB,  0xBE9FDACE,  0xBE84D005,
  0xBE9D996F,  0x3DBE6A47,  0x3D8E324B,  0x3CA01C1A,  0xBDDED009,  0xBD759D53,  0xBD7A5220,  0xBDC3C241,
  0xBCF7A111,  0xBD61E9B5,  0xBD11A67C,  0x3D83D521,  0xBBD78AFE,  0xBE3A3DC6,  0xBD181DAE,  0xBE0851DF,
  0xBE415071,  0xBC28EC2C,  0xBD78D78D,  0x3DEC777A,  0x3F178C26,  0x3F10B520,  0x3EE2469D,  0x3DE7B783,
  0x3CB0282C,  0x3D0D4C1F,  0x3E94DDE9,  0xB869650C,  0x3DD21F20,  0xBDF4EA7C,  0xBE8A1A8F,  0xBE9E2C95,
  0xBE7B9C8A,  0xBE965031,  0xBEA359B3,  0xBEB46E0A,  0xBC4DCCC6,  0xBE7244CC,  0xBDAD6338,  0x3E112EBA,
  0xBE3FCD62,  0xBC92D995,  0xBC2F005C,  0xBE8AF8F9,  0xBD417F56,  0xBD99A9DB,  0xBE5BBA9C,  0x3E53012A,
  0x3EB397C7,  0x3E45B9AA,  0x3E71CB20,  0x3D8C4664,  0x3E79B045,  0x3F295BA2,  0x3ED10487,  0x3F23C1B9,
  0xBDB786FD,  0xBE1F939F,  0xBD8753C4,  0xBD94EEA0,  0xBD82E437,  0xBD224FB5,  0xBD8488ED,  0x3E0CE976,
  0x3D858708,  0xBCFB39BE,  0xBD9F5BAF,  0xBCF25C10,  0xBC25C69E,  0xBCCE3403,  0xBDDF420D,  0xBD832535,
  0xBBB2CC68,  0xBD63E2CD,  0xBBD3FE80,  0xBE123E79,  0xBDFC9219,  0xBEC80D4A,  0xBE887D27,  0xBE81AC7E,
  0xBE1A6EE8,  0xBD1483AB,  0xBD15A0EC,  0xBE6DBD5E,  0xBDF3F50E,  0xBE4E5366,  0x3EA9AF18,  0xBDC846B8,
  0xBE96722F,  0x3F0A5621,  0x3E46EC28,  0xBED9B2D9,  0xBE050E92,  0xBE3A601A,  0xBEB1CC29,  0xBD263C6A,
  0xBE75EFA7,  0xBEDDB4E8,  0xBB2DFB0E,  0x39E5FD5E,  0xBCC2847B,  0xBD8DBF41,  0xBDFFC582,  0xBE467859,
  0x3C9CAD11,  0xBDF84DBC,  0xBE180EC8,  0xBD0BF2CA,  0x3DF94583,  0xBD196DCD,  0xBE2154E2,  0xBDE4A29D,
  0xBD67F9B9,  0xBE4DA0CE,  0xBD6DCFCE,  0xBD33DD29,  0xBE2B53C8,  0xBDCFED63,  0xBC4C10F5,  0xBE300753,
  0xBC75ECEB,  0xBDE27248,  0xBED26239,  0xBE10C4B0,  0xBBD8B5C4,  0xBD8C60F9,  0xBBA90391,  0xBCFE34F1,
  0xBE0C1BFA,  0xBDA0E963,  0xBE478F5D,  0xBE68F14C,  0xBE2C572F,  0xBE878C0B,  0x3C99D31A,  0xBC328764,
  0xBE6D6370,  0x3D2CB8C8,  0xBC88B017,  0xBD81F684,  0xBDAD1810,  0xBE205650,  0xBE2FFD56,  0x3E05D255,
  0x3D000A4B,  0xBDBF0885,  0xBDC7F0FF,  0xBB669F10,  0xBD5F4383,  0x3DEEA7E9,  0x3C9E2140,  0xBC51DEFD,
  0x3E811E72,  0x3E7D5BA9,  0x3D977919,  0xBD3A545D,  0x3DCA1C56,  0xBD65BA87,  0x3D85900E,  0x3D650A5C,
  0x3D4ECD95,  0xBB112B61,  0xBDF359BE,  0xBDA771AE,  0xBD6C923D,  0xBE11C1B9,  0xBE1F3EF8,  0x3DFC95F3,
  0x3D294FA2,  0xBE0AAF76,  0xBC9447E5,  0x3DD0236F,  0x3E0A0B70,  0xBDDF679E,  0xBDA81067,  0xBDC91E2D,
  0xBDB49E78,  0xBD513564,  0xBE432F8C,  0x3C97C6A8,  0x3D91FBD7,  0xBE655429,  0xBDF80B01,  0xBE39E4F1,
  0x3DACCE37,  0xBC6A7EF8,  0xBC16B70A,  0xBDE476CC,  0xBD3E9252,  0x3EC2C43D,  0x3DEB368D,  0xBDE52CA0,
  0xBDEB2604,  0xBDA32FF4,  0xBE6589ED,  0x3E9BC6EF,  0xBE293AB0,  0xBDE24F2B,  0xBE345685,  0xBE1AC2EA,
  0xBDF67276,  0xBE0721F0,  0xBE333644,  0x3CC0D704,  0xBCB05F60,  0xBD1F9B28,  0xBDAE9BF8,  0xBE185806,
  0xBE217A3E,  0x3B1744EA,  0x3D4EF5EF,  0xBC8F2D1D,  0x3D4A8945,  0x3D17E974,  0xBCDCF4F7,  0xBD1C4FCA,
  0xBCA32550,  0xBC72C823,  0xBDBB4BC7,  0xBD9E8E15,  0xBE2126D5,  0xBD3B5EDC,  0x3C7D63AB,  0xBDB122B0,
  0x3D297B22,  0xBE00FED5,  0xBE24FE20,  0xBD98071D,  0xBD86FC14,  0xBD80BBF2,  0xBD945968,  0xBC9707C6,
  0xBCCA208C,  0xBE2CC63A,  0xBDA1A14F,  0xBD871C56,  0x3CA8E68C,  0xBD22CFE9,  0xBD604D1D,  0xBDE1FA20,
  0xBE5396DF,  0xBE0A8E03,  0x3EF11C66,  0x3ECF96CB,  0xBE42ACC6,  0xBE4A5C1E,  0xBDBA05B6,  0xBEDD5489,
  0xBDC3F459,  0xBD70A28A,  0xBECFBCE0,  0x3DA38DC6,  0x3EB5F259,  0x3E4F87D5,  0xBCC0703E,  0x3D336631,
  0xBB4B44D2,  0xBD4CB5A1,  0xBE1632F9,  0xBDEBD03D,  0xBDF60D10,  0xBDCE0D61,  0xBB68F9DE,  0xBD7CFAFD,
  0xBE16CBDD,  0xBE4CF2E9,  0xBEA93503,  0xBEB9029B,  0xBEB6EE38,  0x3E706EB9,  0x3E3CF462,  0x3CB21C1A,
  0xBE4B351F,  0xBE349A5E,  0xBE8C0519,  0xBE68DC66,  0xBE2CE883,  0xBE16361B,  0x3D29B373,  0xBCA6C671,
  0xBDB00F4E,  0xBC9AB66A,  0xBE23EC07,  0xBD676D1A,  0xBD10B51D,  0xBD94360C,  0xBD82BFF6,  0xBE061E26,
  0xBD883C14,  0xBCE35CE6,  0x3C88CBB6,  0x3C62966C,  0xBD157162,  0xBC16BFAA,  0xBD9D099F,  0xBC464B10,
  0xBD86E0CC,  0xBD15C9AC,  0xBC83A83A,  0x3CEB2141,  0xBDBF62A9,  0xBD7D3227,  0x3D6572C5,  0xBD6CA3D8,
  0x3D87B1F6,  0xBCF75C92,  0xBD2A865E,  0xBB072858,  0x3CE934B8,  0x3CCC82AB,  0xBDA73CB6,  0xBB71E7E1,
  0xBCCB829D,  0xBDC3DEF1,  0x3DF583FA,  0xBD8DE2E9,  0xBDB6252E,  0xBCD99B44,  0xBE9961A6,  0xBED042C7,
  0xBE0640D3,  0xBE1538FA,  0xBE56CBA7,  0xBE412B61,  0xBE30C1E3,  0xBE7FCFA2,  0xBDB4B5D2,  0xBE4D1831,
  0xBE3CC476,  0xBDBD3273,  0xBE1046CC,  0xBDBAACC7,  0xBD641D91,  0xBE062EC4,  0x3C788D4B,  0xBE39E7FC,
  0xBE22BABC,  0x3E151199,  0xBDCF0F32,  0xBE519FA5,  0x3D59F80B,  0x3D563272,  0xBD9E6E1A,  0xBE303920,
  0xBDBF5019,  0xBB732060,  0xBBEE674D,  0xBD1CC0C0,  0xBD95C97F,  0xBD4AE364,  0xBB08BB37,  0xBD78C833,
  0xBD481B8D,  0xBCAA56B9,  0xBC38F1E5,  0x3D3F8A3A,  0xBD02B083,  0xBD6150B1,  0xBACA5044,  0x3BEA230F,
  0xBC1258D5,  0xBD4775E9,  0xBDE196BE,  0xBC78D5A8,  0xBE03D3D2,  0xBE38C8CE,  0xBE223E6A,  0x3D14B809,
  0xBE765DD4,  0xBE8EDE34,  0xBDEF0182,  0xBD19A563,  0xBD9F7DA1,  0xBD6C6A3C,  0xBD666528,  0xBD075BD8,
  0xBDA31923,  0xBD1BC656,  0xBDBE5217,  0xBDAD65BA,  0xBC4077B3,  0xBE2DC437,  0xBDA967E6,  0xBE40A8A8,
  0xBE281876,  0xBDBA7390,  0x3F0CCE96,  0xBE30CE7B,  0xBCF716B8,  0x3CF54BBD,  0xBD6C65E5,  0xBD833C1E,
  0xBDADDA31,  0x3D912C79,  0xBE391359,  0xBCF49110,  0x3E2DC310,  0xBD7D2938,  0xBCF1081C,  0x3DB40A02,
  0x3E25344B,  0xBD1DBA81,  0x3C25103D,  0x3E57110F,  0x3CC3604F,  0xBCA2DEBF,  0x3E47B67D,  0xBC26C34D,
  0xBCEA551C,  0xBD0A539E,  0xBC704830,  0xBD2975DF,  0xBCD32652,  0xBD239A1A,  0xBD1F18AB,  0xBDCD3913,
  0xBD8F0F61,  0xBACDE32A,  0xBECF9C96,  0xBC689019,  0xBE9F20A4,  0xBE97F7DE,  0xBDC16000,  0xBE295955,
  0xBE445D22,  0xBCC2A245,  0xBDE8BCBB,  0xBC7A1D26,  0xBE680FDB,  0xBD06D3FD,  0x3BDCA19F,  0x3DE88561,
  0xBDAD9FE4,  0xBC4970AA,  0xBC9FFB93,  0x3C80966A,  0xBD498597,  0x3CEF9715,  0xBD28323F,  0xBD25CD09,
  0xBD7130B5,  0x3C6C3613,  0xBD1B00AC,  0x3DA1CEA6,  0xBC54CDD7,  0xBDF7A524,  0xBD68C137,  0xBD8B717E,
  0xBB915C63,  0xBDE332A7,  0xB977BE33,  0xBC2F76C5,  0xBDC723FB,  0xBD333452,  0xBD86CC13,  0xBAC87343,
  0x3A7E33B4,  0xBC37310C,  0xBB087D7E,  0xBC4E0A83,  0x3C60BAB1,  0x3CAA2B75,  0xBDF0518E,  0xBE891DA6,
  0xBE4D81A2,  0xBDFDD940,  0xBDFCEDB0,  0xBE755784,  0xBE0D8B60,  0xBDE4052D,  0xBE033AD1,  0xBD888109,
  0xBD278E2A,  0xBD5B853E,  0xBD9033A0,  0x3C2ED1B7,  0xBC9FAB5F,  0xBDA213F5,  0xBD21C38C,  0xBCCF3523,
  0xBDD68CF2,  0xBCFBDD42,  0xBD984731,  0xBCC46B97,  0xBE03F914,  0xBD16EE05,  0xBDCE9812,  0xBDD61BA3,
  0xBD4AE0CC,  0x3E28885F,  0x3C7434F9,  0x3D2BDB1B,  0x3DCFF029,  0x3E22E61D,  0xBD3A23C3,  0x3C802C50,
  0x3D6577F3,  0xBA4A81F8,  0x3CA359E2,  0x3CDFB27E,  0x3D05B5BD,  0xBCC8A8B1,  0x3D5A4012,  0x3D2DE294,
  0x3D0EA901,  0x3DF3E43D,  0xBD7058AF,  0xBCE8EB24,  0xBD410BDC,  0xBE007E62,  0xBE6992F6,  0xBE804F64,
  0xBE517C7D,  0xBDD91525,  0xBE1AC242,  0xBE287BC4,  0xBD4E530B,  0x3D386500,  0xBE2ABF15,  0xBDACE3C9,
  0xBE56A316,  0xBE49D7BF,  0xBDD08208,  0xBDC8AFDC,  0x3A85BD91,  0xBDF2977C,  0xBDB7862C,  0xBC73D726,
  0xB9D1093D,  0xBDB03951,  0xBE16ADE9,  0xBDBF960B,  0xBE1B96BA,  0xBCA1CA50,  0xBDE9223B,  0xBE01D596,
  0xBE05FDFD,  0xBC87EC17,  0xBDD63455,  0xBD6A6305,  0xBD5160BC,  0x3CBA5B12,  0x3E402B51,  0x3DB81BC3,
  0xBBE23BF8,  0x3DDF628C,  0x3E1A33F4,  0xBDB14869,  0x3E20FB9F,  0x3E54868A,  0xBDB32F98,  0x3E5C2C39,
  0x3E827850,  0x3E94EBA0,  0x3E03D8B0,  0x3D399D17,  0x3E5F9F66,  0x3E40B64E,  0x3DE91A41,  0x3DE333C4,
  0x3D2C87B2,  0xBCC4FF39,  0xBDC43299,  0xBD1E8993,  0xBD9C27C2,  0xBDABAE14,  0xBDA16AF0,  0xBCB6B5C4,
  0x3D984B55,  0x3D241550,  0x3C21DAB6,  0xBCBCE10D,  0xBDA3D2E3,  0x3E879A47,  0x3E9B8612,  0x3C854C85,
  0x3B21124A,  0x3E2D507B,  0x3BB643C4,  0x3D23E5E1,  0xBC8281A9,  0x3CD3758D,  0x3C4338F0,  0xBD58C25E,
  0xBD916FEC,  0xBCC0A301,  0x3B4C290E,  0xBC9BCCA3,  0xBCEA10CD,  0xBE00A3D0,  0xBCB8C4A1,  0xBD70455E,
  0xBD8FB2B9,  0xBDA4668C,  0xBDA7B76B,  0xBDCCBD5E,  0xBD3C3420,  0xBC8E14BE,  0xBD00017B,  0xBD0699AB,
  0x3C154938,  0xBC4BA72E,  0xBD115330,  0x3CE4B41C,  0xBDB67222,  0xBE25153E,  0xBDFB2D4B,  0xBE316C61,
  0xBE5077EC,  0xBDCFCBBF,  0xBE31D2A6,  0xBE7237DE,  0xBCF2A170,  0xBE05109B,  0xBD9D05EE,  0xBD42C159,
  0x3DF98A79,  0x3C9F5533,  0xBD35C5C3,  0x3EA15946,  0xBD87A6DC,  0xBE057CA4,  0x3E182C96,  0xBE09A83D,
  0xBE819FEE,  0xBE3C06EE,  0xBE04F6B4,  0xBE86B00C,  0xBE6C3883,  0xBDB985C2,  0xBE2CED84,  0xBE5D15A7,
  0xBDBA3700,  0xBD9929F6,  0xBD1C6E24,  0xBE2316A8,  0xBC164C52,  0xBD2E52FA,  0x3D435A17,  0x3E13CCF8,
  0xBCC70B90,  0x3BA7B3A5,  0xBD93A952,  0xBD90ED3A,  0xBD629224,  0xBC4383EE,  0xBD496838,  0x3CAE4FEA,
  0xBD1E42F5,  0xBD82E91D,  0xBD813B14,  0x3CDA8D35,  0xBCEB5AA0,  0xBE79FE9E,  0xBE490569,  0xBE39F21B,
  0xBDEBD15A,  0xBDCB1045,  0xBD4E02B5,  0xBE2FBFC5,  0xBDD94F9A,  0xBD3654AB,  0x3D92EC2A,  0xBE1C95AE,
  0xBE4002EA,  0x3EA0B535,  0x3E60C782,  0xBE89F282,  0xBB58097A,  0xBDC98C4A,  0xBD855797,  0xBDF428B0,
  0xBE2CA75B,  0xBEA554FD,  0x3D89F201,  0xBD165D68,  0xBD042D12,  0xBD204852,  0xBD8A61B9,  0xBDF90900,
  0xBDB120FE,  0xBD943368,  0xBD70A890,  0x3D90DE62,  0xBD8B156C,  0xBD3E73D4,  0xBDC44C64,  0xBD879053,
  0xBBAEB4E6,  0xBE60B1CC,  0xBDCEF681,  0xBD73A267,  0xBE038867,  0xBC7EDBFD,  0xBD99E2EC,  0x3D7BF523,
  0xBD2AFDB2,  0xBD9D1B11,  0xBE836D04,  0xBE0AF670,  0xBD9DD086,  0xBD963C7A,  0xBCBB9FC5,  0xBCAFF1DC,
  0xBDAB2DD3,  0xBDA8F489,  0xBE0BB4B7,  0xBE21DBBA,  0xBE25F17C,  0xBE4A5A9F,  0xBD25F9A2,  0xBDDE29C1,
  0xBE12C1A2,  0x3CDE722B,  0xBD925EA2,  0xBE3CB9EC,  0x3DE9EEDF,  0xBE08D01A,  0xBE080D19,  0xBDA1671D,
  0xBCDA7DF3,  0xBDB4F7DB,  0xBBF31ABF,  0x3CF8F82F,  0xBCED5CFE,  0x3D25133D,  0x3C25EF90,  0x3BDD52AA,
  0x3E06A6C0,  0x3DD0B645,  0x3DA3596E,  0x3D326C3C,  0x3C3F6FAA,  0xBD90A447,  0xBD1B1065,  0xBCD5AD14,
  0x3C2B57B2,  0xBCCD43C9,  0xBE09ADA9,  0x3C789F09,  0xBD551CA1,  0xBD168643,  0xBD68FB42,  0x3CA65CE7,
  0xBDEC5F11,  0xBE7303DE,  0x3D20627E,  0x3E85AAD6,  0x3E47BFBC,  0xBD1F781D,  0xBE0C0BCE,  0xBE230DA7,
  0xBE14554E,  0xBE87F31A,  0xBDEA7A8E,  0x3E12FD22,  0x3DD11666,  0xBD698DAF,  0xBE144738,  0xBE061A73,
  0xBE0AA4F4,  0xBE5AE37C,  0xBE04596E,  0x3DDA74C4,  0x3E4E8FA0,  0x3E6FD8AB,  0xBDCA9156,  0xBDF355A9,
  0xBCA64EA5,  0xBDACB3F0,  0xBE0F9B52,  0xBD5BB633,  0xBE02BC3E,  0xBE0ABF81,  0xBDA16AAC,  0xBE324996,
  0xBE0D6E94,  0xBE6D2818,  0xBE6FF7B3,  0xBDCC82B1,  0xBD8B9390,  0xBE24BA77,  0xBD765D8B,  0xBDF65F49,
  0xBE5D594D,  0xBC4F33B3,  0xBB75F3EC,  0xBD73DD7C,  0x3D60FE48,  0xBB7D4149,  0x3C5B78E7,  0xBC73ABE7,
  0xBCA36F55,  0xBD7C0935,  0xBD29312E,  0xBD0DCC35,  0x3C9B6B3F,  0xBDEE4DD9,  0xBDAC07BD,  0x3DF5935E,
  0x3E7C5E96,  0x3DD80267,  0xBD4D8F9A,  0xBE58E32B,  0xBE29F730,  0xBCBADD61,  0xBE73B7B7,  0xBD775514,
  0xBDE9FEDB,  0xBE5C7715,  0xBE1E522F,  0xBD45E806,  0xBDEB47DF,  0xBD86D8A2,  0xBDE25750,  0xBE49C565,
  0xBE648C6A,  0xBE5A7415,  0x3E8C4515,  0x3F1D9327,  0xBDF001E2,  0xBE1F9F6E,  0xBDD1205A,  0xBE7E220D,
  0xBE1FF130,  0xBCF14D36,  0xBEA88153,  0xBD6B065F,  0x3E43AE55,  0xBD17387E,  0x3D70AE7E,  0xBBDA8F38,
  0xBD367C24,  0xBDCA5EE8,  0xBE7751CD,  0xBE1945A4,  0xBD81F772,  0xBD7FAFAD,  0x3C6A3FE2,  0xBDA6EE91,
  0xBEAF615F,  0xBEA8392C,  0xBEC8944B,  0xBE9EE161,  0xBDA25A22,  0x3C17C199,  0x3D9D7200,  0xBD959781,
  0xBE9E72D5,  0xBE1D7770,  0xBDFD1BB0,  0xBD95C1A6,  0xBE818D93,  0xBE1AF847,  0xBDA77CB3,  0x3DE313BC,
  0x3E86D2E8,  0xBDB97E7B,  0xBE08BB3B,  0xBDDCEDFD,  0xBDD3A9A7,  0xBE7E46E8,  0x3DA8681A,  0xBDEECE4E,
  0xBE0E6F5F,  0xBE2521CF,  0xBD866414,  0xBD7BC1A2,  0xBD26E3A4,  0xBDC1646D,  0xBDEBB9DC,  0xBDDCE46B,
  0xBE4EB715,  0xBE195B6D,  0x3CC467DA,  0xBE00EB68,  0xBD8A7DF5,  0x3BB70445,  0xBDD98E33,  0xBD6CB400,
  0x3C775D15,  0xBC888F55,  0xBDF4DEF3,  0xBDA420C7,  0x3AA378B4,  0x3CA82540,  0xBD01F508,  0xBD2DE96B,
  0xBD691B2E,  0xBD96C1D0,  0x3DE90906,  0xBD74D6E7,  0xBDAAF78C,  0xBE616779,  0xBEA8DC7A,  0xBED6B50A,
  0xBE827BF0,  0xBE4CAFFF,  0xBE202676,  0xBE95DEFD,  0xBE1C1A65,  0xBE81DD5A,  0xBE0E765D,  0xBE61F4A2,
  0xBEAD127E,  0xBE2CF0FC,  0xBE153D6C,  0xBD746E56,  0xBE317BF1,  0xBE392C8A,  0xBE28FBDD,  0xBDAE172A,
  0xBDDC0340,  0xBD54AD7E,  0xBDD94B53,  0xBE1DDC00,  0xBE11622A,  0x3C84254E,  0xBE163F5F,  0xBD7CE463,
  0xBD919F70,  0x3B86954C,  0xBCA1E80D,  0xBDE4AF97,  0xBD5ED81A,  0xBC6BC6CD,  0xBD82F410,  0xBD7C2D50,
  0xBD7186F1,  0x3D0558A0,  0x3BB28475,  0xBD3DAD04,  0xBD0FB7CC,  0xBD1A7AC7,  0xBDB2906D,  0xBE0D6F39,
  0xBE2945EB,  0xBDE978B4,  0x3EC02FF8,  0xBE9FDAEA,  0x3E20125D,  0xBE9C8B38,  0xBE4B0431,  0xBE93CAE7,
  0xBE66BD1D,  0xBE9C5E67,  0xBE810D3C,  0xBD4CE122,  0x3D70870F,  0x395F36CA,  0xBE1ABB7A,  0xBD886BAE,
  0xBE1E0953,  0xBE81CE8F,  0xBDB51D49,  0x3CAE02BE,  0xBDFFE101,  0xBEACE82C,  0x3C291672,  0xBDF8A3FE,
  0xBC8CAA3E,  0xBDE84EEC,  0xBD0AAF06,  0xBE07BA7A,  0xBE12EEF7,  0xBE012EC7,  0xBE1163EB,  0xBE4906CF,
  0xBE947967,  0xBDCC78A7,  0xBE2FC9BB,  0x3F0BA4DF,  0x3D565DED,  0x3F2B7D10,  0xBC7DA84F,  0xBDE25EDD,
  0xBD318E0F,  0xBD074AAE,  0xBD8A1DF1,  0xBD6138E4,  0xBD70C6DF,  0xBCC485EF,  0xBD080C32,  0xBDAD3AB6,
  0xBD9B0054,  0xBD6B2318,  0xBE152F0B,  0xBD9BE764,  0xBE0041EA,  0xBDC13095,  0xBDD36431,  0xBDAE669E,
  0xBEA8C199,  0xBED3FF03,  0xBEC5D8D8,  0xBF0220C7,  0xBEB3F0D2,  0xBF076275,  0x3E1F05E3,  0x3DDBC715,
  0x3DCB240C,  0x3E3812A1,  0x3CAC3A32,  0xBCC5C31B,  0xBE622A13,  0xBC89807E,  0xBD6B6D9C,  0x3D8F4C96,
  0xBC0C9BEA,  0xBC80DE0C,  0xBC5647CB,  0xBC080D06,  0xBC2DCA7F,  0xBD74E77E,  0xBC7A1868,  0xBC253275,
  0xBDA2AAB6,  0xBD985FF2,  0xBDB2A79A,  0xBD699E52,  0xBD1D5CA1,  0x3DC7C32E,  0xBE33C95B,  0xBDBC8D8A,
  0xBDE068CF,  0x3CF7ECB0,  0x3A770E43,  0x3D056AB4,  0xBCA46943,  0xBDD86AED,  0xBDF461FD,  0x3D74CBF3,
  0x3E065527,  0xBD1AF2A9,  0x3D33F371,  0xBD7E0201,  0x3E3EB237,  0xBD248ADD,  0xBDE321F9,  0xBE1FB9BF,
  0xBE8435B1,  0x3DDAE485,  0xBEB98805,  0x3E40B2FD,  0xBF0B9118,  0x3F0DAAA4,  0xBE38A54C,  0xBE3525C6,
  0xBE06E50B,  0xBDB586E1,  0xBE10B59D,  0xBDAE037D,  0xBCEF735A,  0x3C3473F5,  0xBE8A882B,  0xBE116E53,
  0xBDD2109A,  0xBE263599,  0xBED8AE31,  0xBE0EBD30,  0xBCE3B912,  0xBEC6177C,  0xBE1D16C8,  0xBDCB36FA,
  0xBE21BAF6,  0xBCEB1EE2,  0xBD814171,  0xBDB18F41,  0xBD5F0C7F,  0xBD582676,  0xBDBA3FB2,  0xBD3180D3,
  0xBDEA97EA,  0xBD3E7F28,  0x3D15F93E,  0x3CA65232,  0xBE639951,  0xBE8614A1,  0xBE42C1F5,  0xBD90981E,
  0xBD089CA4,  0xBE5652A5,  0x3F34F8A7,  0xBE969DE5,  0xBD8F0777,  0xBF48FB4D,  0xBEEDB2E5,  0xBEF79C7D,
  0xBF042E34,  0xBEFEC1C2,  0xBEBB59B2,  0xBDE9E293,  0xBD2C660F,  0xBE05F273,  0xBD03C1A8,  0xBD925AA7,
  0xBE279A89,  0xBEC1E13E,  0xBF03E89B,  0xBED222C8,  0xBC88A5A9,  0xBEF7BDDD,  0x3EB2CCA8,  0xBF027646,
  0x3ECC2C92,  0xBEE1780E,  0xBE3EFB28,  0xBE9609DC,  0x3CBCC1DB,  0xBE37C250,  0xBE8BE0EC,  0x3E87C92E,
  0xBF0C87AD,  0xBE7D0C68,  0xBE1605BA,  0x3F74B3C1,  0x3EA7D3ED,  0x3E3815BC,  0xBDB1AA2C,  0xBDFFE572,
  0xBDB5B53B,  0xBDBD241F,  0xBDD34BBF,  0x3C415DFC,  0xBC2FF848,  0x3C9F64A6,  0x3C88165B,  0xBE16ADB8,
  0xBE2A0AD8,  0xBDF98FC2,  0xBE22E4B0,  0xBE631A60,  0xBDE1445A,  0xBE031758,  0xBDD84216,  0xBE363785,
  0xBF7236E9,  0xBF046EB5,  0xBF020BB7,  0xBF36421F,  0xBF2A6C7F,  0xBF8E732F,  0xBD934212,  0xBEF36D01,
  0x3F175FF3,  0x3DFD92AA,  0x3D927360,  0xBE4C6EB5,  0xBEDC02B3,  0xBE21F56A,  0xBE7B9154,  0xBE5113B2,
  0xBDACC821,  0xBE71EEAB,  0xBD648373,  0xBD4B1CCA,  0xBC864BFC,  0x3A347EE0,  0xBC9C259D,  0xBD5B65E2,
  0xBE7038BB,  0xBE073AA3,  0xBE1677F8,  0xBDCA4840,  0xBDE6AA52,  0x3CC040F1,  0xBE717B93,  0xBE2AFEBB,
  0xBEA72DA5,  0xBD3B31D0,  0xBD940AE8,  0x3E63B440,  0xBDA46EE1,  0xBE5DDCF8,  0x3DBDD8B7,  0xBE12B830,
  0x3EA6C610,  0x3EA22002,  0x3F117501,  0x3DDB2ACE,  0x3DD1DFA2,  0xBCCBF1F6,  0xBE92B806,  0xBED9BA68,
  0xBF2969FF,  0xBF2670E5,  0xBF477ED7,  0x3F484BA2,  0xBE6DB422,  0x3F69B718,  0xBE58505A,  0xBDDC0C1E,
  0xBE7515A3,  0xBEA07359,  0xBE8E4E49,  0xBCFC32F2,  0xBE5E25EE,  0xBD1AD591,  0xBEA33DE3,  0xBCE1A610,
  0xBE4012C9,  0x3DA2C1C9,  0xBF15FD84,  0xBE57B721,  0xBC55123A,  0xBED9E178,  0xBDF631D9,  0xBE51EAA7,
  0xBE0D5A6C,  0xBD9C1DA6,  0xBD0829D2,  0xBDA235EE,  0xBDAD4B93,  0xBD909DA9,  0x3D475D2F,  0xBD20DA35,
  0xBD5F5A60,  0x3D971670,  0x3E321E28,  0x3D2A6AC6,  0x3E38A04B,  0x3E6BDD34,  0xBC7FC987,  0xBDA18AD8,
  0xBD091EFB,  0xBCA9B9BE,  0xBDFAFB00,  0xBE4338C7,  0xBEC76AF9,  0xBE3978E8,  0xBEF4F371,  0xBEAA4E81,
  0xBDCEC361,  0xBE048789,  0xBD5F30C4,  0xBD651E1D,  0xBD24B11C,  0xBE0E2AB8,  0xBC7E7D98,  0xBE30B828,
  0xBE574C6F,  0xBE8610A7,  0xBD66F6B4,  0xBE6BEDF2,  0x3DDD9DAA,  0xBE8B9769,  0xBE9B154D,  0xBEDCEBBE,
  0xBE145455,  0xBE7CA7EE,  0x3F29E6C2,  0x3F0D4522,  0xBEC28429,  0xBF238703,  0xBF1F140A,  0x3D81EE73,
  0xBE6A45AD,  0x3E8917FF,  0x3E867613,  0xBE26A632,  0x3F153122,  0x3CC73B6F,  0xBD4C808E,  0xBD11BCA6,
  0xBD7BC200,  0xBD3AEF17,  0xBDB569BF,  0xBCB6E40B,  0xBD564595,  0xBAA05AA2,  0xBCB0CD53,  0xBDF1ECE1,
  0xBDAE1F61,  0xBDDAF9E3,  0xBC61CCEF,  0xBE1CFA25,  0xBDE97B3D,  0xBD77375D,  0xBE227923,  0xBDE16AF7,
  0x3EA36D0F,  0xBDC9FB35,  0x3E948012,  0xBE9641B9,  0xBDC91BA4,  0xBF1DEE7F,  0xBEBFEDCF,  0xBEF49D8A,
  0x3DEA7E49,  0x3E196185,  0xBE41BF8D,  0xBE3E195B,  0xBE4CCD25,  0x3E763C43,  0xBDB409E1,  0x3ED00774,
  0x3E313A66,  0x3C8DC7AA,  0xBD8E9BC9,  0xBC0BCA5A,  0xBCD766E0,  0xBD53B52E,  0xBD115F1E,  0xBD63A7AD,
  0xBDBBF96B,  0xBDD6670A,  0xBDCB90F0,  0xBDB19FF4,  0xBC81319B,  0x3CD8ECEB,  0xBDF017F1,  0xBE092763,
  0xBD2593A0,  0xBE26EE50,  0xBD3C8A90,  0xBDBE80D9,  0xBC800DC8,  0x3D378AF1,  0x3DA05025,  0x3EACD27C,
  0x3D84DFE4,  0xBDB757BC,  0xBD9F0D88,  0xBCFF4754,  0xBE204121,  0xBE5B8D4D,  0xBF292807,  0xBF1A5CE3,
  0xBE0BE3BB,  0xBF045CE8,  0xBF01086A,  0x3C88BDB4,  0xBE9F50CB,  0xBF09A89A,  0xBE7C4933,  0xBE2B4AD5,
  0xBDA3478D,  0xBD082553,  0xBC956BCC,  0xBDDDAAEA,  0xBDB0D69B,  0x3E39177C,  0xBDC856ED,  0xBE08661E,
  0xBD06AE9F,  0xBE2D7251,  0xBD57BEB8,  0x3DE4A719,  0xBDA81B56,  0xBE2F61E0,  0xBDB97572,  0xBE383DE8,
  0xBE3B2AB3,  0xBDC46E6B,  0xBE11B9F4,  0x3DB54F63,  0x3D746BA9,  0x3E468926,  0xBD613C2A,  0x3BCBC28D,
  0xBE0ED35D,  0xBCE1931D,  0xBD2E92B7,  0xBD5C67D9,  0x3D18C6CD,  0x3C96BCA7,  0xBD787D28,  0xBDCB169C,
  0xBDB7069A,  0xBDA030DC,  0xBEAB5431,  0xBE04585A,  0xBDF65630,  0xBE82709F,  0xBE6068F1,  0xBD91D039,
  0xBE63F357,  0xBEA65B3E,  0xBECD69E5,  0x3F89467C,  0x3EB11837,  0xBECE3280,  0xBE2096CE,  0xBED1E7AA,
  0xBF517815,  0xBE35615A,  0xBE40104B,  0xBBBF142C,  0xBE0FC66C,  0xBE05E731,  0xBE0A06FD,  0xBDAB96BF,
  0xBDA20A98,  0xBE59C3A7,  0xBEDDE563,  0xBEE0C4F9,  0xBE6353C9,  0xBEA675F3,  0xBE22AE7B,  0xBE249EE2,
  0x3EB23CC7,  0xBE31805D,  0xBE92D709,  0xBE952D08,  0xBE15B693,  0xBE41210D,  0xBE46C530,  0xBC9F6BAC,
  0x3C1512EA,  0xBE0AFD18,  0x3D28251B,  0x3D88E749,  0xBE1C6427,  0xBCED075F,  0xBD1487A1,  0xBDAC417F,
  0x3C0C430A,  0xBD395BF4,  0xBDD68CBD,  0xBD2C8375,  0xBC2B89B6,  0xBEC1F3E4,  0xBED63F82,  0xBEE06B33,
  0x3E5C1E76,  0xBEDC9429,  0xBEE68796,  0xBF234D4E,  0xBE262FB9,  0xBCD8DF35,  0xBEF05AFC,  0xBEADA23C,
  0xBDF3D810,  0x3EA9B1BD,  0xBE397D9F,  0xBE252963,  0x3E6F5513,  0x3D101385,  0xBDF43FAB,  0xBE159148,
  0xBD77DEF9,  0x3DE36F04,  0x3EA9FB65,  0x3CEE03CE,  0xBD857B68,  0xBDD605A8,  0xBE3AC38B,  0xBE6014A2,
  0xBDC57281,  0xBE21E422,  0xBCF9E897,  0xBD9F8787,  0xBDA96113,  0xBD1D5C5B,  0xBE08C029,  0x3E7BF187,
  0x3C7E9B55,  0xBE62B764,  0xBE380495,  0xBE467E17,  0xBE9856E0,  0x3F8486E5,  0x3F36E6F4,  0xBDBBC288,
  0x3F20B020,  0xBE9263D8,  0x3D90DDFA,  0x3E53ADBF,  0xBDC940A0,  0x3EFB1F93,  0xBDEB73F7,  0xBEE7E5BC,
  0xBE2528B4,  0xBDD23901,  0xBE9E7054,  0xBEA70D68,  0xBEE72C56,  0xBECAB042,  0x3E80EE97,  0xBE11826C,
  0xBE0FAA50,  0xBDB6EFCA,  0xBE071AF8,  0xBDE505A4,  0xBE2EE658,  0xBD93BFBA,  0x3E8CAFB0,  0xBE54E38B,
  0xBE372218,  0x3D3B4C0D,  0xBCFCDB48,  0x3CB7F107,  0xBE10610C,  0xBE87DDE6,  0xBD2A3A37,  0xBE22CEC9,
  0x3CFD6642,  0xBD3F0B10,  0xBDB96BEC,  0xBD9B10A7,  0xBE83C17E,  0xBE138015,  0x3D76BC4B,  0xBE1B5505,
  0xBD9ADC5C,  0xBD3CCD6A,  0x3CBDE4B1,  0xBD619B95,  0xBCB7D306,  0xBC55D19E,  0xBD8E9BF6,  0xBD4DD0B9,
  0xBD30CDDF,  0xBD9B3A8D,  0xBDBC7A23,  0xBCF088CF,  0xBDE0236B,  0xBF077E70,  0xBEE4471C,  0xBE83B1A7,
  0xBE5D7FC6,  0xBE8E016E,  0xBD3CA24B,  0xBE3E2345,  0xBDD731CF,  0xBD3C8673,  0x3DE0DAA1,  0x3CDA3DBF,
  0xBEA73796,  0xBF01C171,  0xBD329142,  0x3F073095,  0xBD3F669B,  0xBE2E58FE,  0x3D138795,  0xBE00C016,
  0xBD7A1418,  0xBD9658E8,  0xBD69382E,  0xBE73C6CD,  0xBDB453CB,  0xBE6219B5,  0xBDB70F0B,  0xBE20980B,
  0xBE4CD360,  0xBDF2D300,  0xBD6E4236,  0xBE161E38,  0xBD8B4499,  0xBE3F7123,  0xBD3862EF,  0xBE1E4EB1,
  0xBCA09188,  0xBDD8AB6F,  0xBE077F6D,  0xBD23A9D3,  0xBD9D49A0,  0xBD13819C,  0xBDB76222,  0xBCE1CB3C,
  0xBDE7278F,  0xBDF3AA49,  0xBEB4362D,  0xBE7C5B08,  0xBE015531,  0xBDED0435,  0xBD66E1E8,  0xBC7549EC,
  0xBE2B6980,  0xBCBB3F30,  0x3CF0413F,  0xBD58E7B4,  0xBE33E4B9,  0x3DAA0B1B,  0xBE93B48D,  0xBE171143,
  0xBE4DE41E,  0xBDB2EA73,  0xBE101CD4,  0x3D2266F3,  0x3CBD3EB9,  0xBDE40C31,  0xBD685F97,  0xBD49613E,
  0xBDACE8AF,  0xBD135594,  0xBD4A75DF,  0xBCCC3976,  0xBCDDDD6D,  0x3DA9165A,  0x3D7D20E6,  0xBD30B7CC,
  0xBE00DA8B,  0xBC9606FC,  0x3D62D0DD,  0xBDB8BB39,  0x3D1FF964,  0x3DF06129,  0x3E07A267,  0xBE10A1C3,
  0xBC528BD2,  0xBD3F462F,  0x3D3EBB78,  0xBD71319F,  0xBE219167,  0xBD2EF292,  0xBD06545A,  0xBD92FE0D,
  0xBDB5E3FF,  0x3CADF994,  0xBDBD4F49,  0xBD75A9A0,  0x3B3D31AB,  0xBF113B70,  0xBEA57025,  0x3DFD5423,
  0xBE5E90C2,  0xBE258E51,  0xBCC07C38,  0xBE515B3A,  0xBE3F8DB3,  0xBD7E636B,  0x3D8B678B,  0xBE5D1698,
  0xBE45B753,  0x3E7E1938,  0xBE830960,  0xBE1C3929,  0xBC67AE4B,  0xBDE5949E,  0xBE1D08AD,  0x3F1C3BAC,
  0x3EE647FE,  0xBED7CC34,  0xBE54C96C,  0x3E9E97EB,  0xBE856B80,  0xBE5B95A2,  0x3E88EFB3,  0xBE4A6D09,
  0x3E19D515,  0x3D096D46,  0x3D6E9663,  0xBDAFDC43,  0xBD4EB191,  0xBDFFDBC3,  0x3D0F5CB1,  0xBE0A8FC1,
  0xBD8B7DD2,  0x3B3FD439,  0x3D8A9F18,  0xBD84593E,  0xBD2C9F89,  0xBD883CBF,  0xBDA5F6AB,  0xBD0E202B,
  0xBD92EA42,  0xBDBBB75B,  0xBE42733E,  0xBD90C9CC,  0xBE5270B3,  0xBE04BD9C,  0xBED06097,  0xBEA615AD,
  0xBE635E60,  0xBEB3EB0B,  0xBDA9C7D2,  0xBE879E1D,  0xBE8E90EA,  0xBE43CF07,  0xBE5ADC15,  0xBE18E090,
  0xBE10C3A5,  0xBE50CEE8,  0xBCD7FB2B,  0xBD561D3C,  0xBE036D23,  0xBEAFE6C1,  0xBDCB2A7B,  0xBE2D557C,
  0xBDCC64FB,  0xBE4CBCF3,  0xBE677FE6,  0xBF1024B5,  0xBE7328EC,  0xBED2145F,  0xBE62FAB4,  0x3E03D0F0,
  0xBECC8F3A,  0xBE90B1E0,  0x3E98ECD0,  0xBE4E339D,  0xBE13B12C,  0xBE903066,  0xBDC52290,  0xBDDF226D,
  0xBDF43A9D,  0xBDA34454,  0xBE008ECB,  0xBE1195CF,  0xBD11E308,  0xBDE3FFFE,  0xBDD0310B,  0xBD8D335C,
  0xBD8CB7ED,  0xBE1B63A8,  0xBDEB39FA,  0xBD72539C,  0xBDD6B62B,  0xBDF50BC6,  0xBDF3D0C6,  0xBDF8E65D,
  0xBE50548F,  0x3B1A6360,  0xBDFA3E77,  0xBE7B258B,  0xBE634D11,  0x3D30486F,  0xBE490CB5,  0xBD9D96B0,
  0xBE9D69A8,  0xBD9BDB74,  0xBE14E9B7,  0xBC9CED4C,  0xBE02C13D,  0xBDDB3C79,  0xBDD95C1D,  0xBDC5EAC6,
  0xBE81FAF5,  0xBE3F1D85,  0xBC528518,  0xBDFD2538,  0xBD1E2FF8,  0xBD58089F,  0xBDA09B62,  0xBDB0E893,
  0x3E15CA16,  0x3D8DE439,  0xBC8E49C4,  0x3C668846,  0x3DC279EF,  0x3F144A91,  0x3E4302BE,  0xBD84A5E3,
  0x3DE90CCA,  0x3D7CC160,  0x3E547FFF,  0x3E346275,  0xBE414904,  0xBCD8341E,  0x3D749D7F,  0xBDDFBB9D,
  0xBC594FF2,  0xBDE23188,  0xBD29FAE6,  0xBD96CC3B,  0xBDB6E6F3,  0xBF01681E,  0xBE293D4F,  0x3E8F272A,
  0xBED99D5F,  0xBED55F08,  0x3E1AAC96,  0xBDFD355F,  0xBE7BCF8B,  0x3C124672,  0xBE6377F8,  0x3E23D5DC,
  0xBE1CDFD6,  0xBE52E458,  0xBE3D43E7,  0x3CBB730C,  0xBC99E284,  0x3E202B03,  0xBE94FE82,  0x3F616437,
  0x3DEB2AD5,  0xBE806FCA,  0xBD756B52,  0xBEA69C81,  0x3F12F764,  0x3CBF1079,  0xBECCBF7F,  0xBEE4BE58,
  0x3F46CE1C,  0xBD5C6B62,  0x3DEEBBA0,  0x3F4033BD,  0xBD4FFDAB,  0x3D18A7F8,  0x3E548439,  0x3DFEF0E9,
  0x3E3A46DC,  0xBCD6C416,  0xBE407A04,  0xBCA406FD,  0xBC594228,  0xBE120585,  0x3D5F68EF,  0xBE00674D,
  0xBE24A71B,  0xBCBD5EA9,  0x3BF92CB1,  0xBE90658C,  0xBEF50C73,  0xBEA50AB6,  0xBE63B8E9,  0xBEF11E52,
  0xBEC0ACCD,  0xBEE7DB15,  0xBE945645,  0xBE77E2A6,  0xBE9C8F2C,  0xBE88C39B,  0xBEAB8ED5,  0xBEDBDF42,
  0xBEB2B6B3,  0xBE974476,  0xBE7B90AB,  0xBE842F6F,  0xBEB29726,  0xBE66AE37,  0x3D1A3D78,  0xBE2F3C50,
  0xBDED9A40,  0xBDF25153,  0xBE6425BB,  0xBE024635,  0x3E3481DB,  0xBEC24635,  0xBEB4DE3D,  0xBEB2A986,
  0xBEAC6E38,  0xBEBDC4AA,  0xBE5830E4,  0xBE925277,  0xBE00A172,  0xBB907DCD,  0xBD3DB07B,  0xBDFD5AB3,
  0xBDC1B91B,  0xBD3B0422,  0xBE1EE19D,  0x3CE483A8,  0xBDAEE03C,  0xBE1AE43B,  0x3D18271F,  0xBDBB2085,
  0xBE2A3862,  0xBEA1DFEC,  0x3C069CB6,  0xBE36E25F,  0xBEA6EDFA,  0xBE7C1DDB,  0xBE4E59CB,  0xBE101ED7,
  0xBE8EA8C7,  0xBF047F03,  0xBEA775A8,  0xBF0670D2,  0xBDAC8C4A,  0xBE8C47D2,  0xBEC6159E,  0x3CF00DAE,
  0x3DDF145E,  0xBE746067,  0xBEAC88B9,  0xBE544257,  0x3D89F7C7,  0xBE81B9B8,  0xBF0516CB,  0x3DCAAB34,
  0xBEC709D5,  0xBE93BE94,  0x3DE2B69A,  0xBD0DFA9F,  0xBD363553,  0xBBA1810A,  0xBDEA688D,  0xBD9A1D18,
  0xBD4B5D69,  0xBD5339E8,  0xBD8EAB84,  0x3DEBD42D,  0x3DC0432F,  0x3E48E5A2,  0x3E69D19C,  0xBDAA2244,
  0x3EDF9B97,  0x3DAD1AAB,  0xBD4E4831,  0x3DA6AD76,  0x3E020A1E,  0x3E381106,  0xBCD62F93,  0xBD899118,
  0xBD6BA942,  0x3D267C14,  0xBD8313D7,  0xBD5E0F6F,  0x3C801914,  0xBEB4C189,  0xBE154F23,  0xBE877200,
  0xBE9DB7E0,  0xBEDA78CC,  0xBF172239,  0xBE3D3614,  0xBE868FBD,  0xBEE00013,  0x3EE5F067,  0x3E87FFCA,
  0xBEC69D0C,  0x3ED4F98C,  0x3E11E5EC,  0xBEAA80FB,  0x3E02B759,  0x3E3FBC50,  0xBE5AC3B6,  0x3CC0A650,
  0xBDFF5767,  0xBE07B20C,  0x3E8349AF,  0xBE4A9DD7,  0x3EB54DB2,  0xBD13A519,  0xBEAAC638,  0x3F1EF029,
  0xBD0B15F2,  0xBD0938DE,  0xBD602EA3,  0xBDAAD8D5,  0xBC360D10,  0xBDC5800A,  0x3E1AC9B9,  0xBD893CF5,
  0x3A7BEA64,  0x3D1DC096,  0xBD272194,  0x3A95FA2B,  0xBDAB68AB,  0xBC50DB1D,  0x3D02A14A,  0xBB103639,
  0xBD3DA1A8,  0xBD903FED,  0xBE0B7931,  0xBE76F8AD,  0xBCA48D0F,  0xBB84E523,  0x3C97F262,  0xBD47689C,
  0xBCA85009,  0xBE207861,  0xBE8F80FC,  0xBDC7CF78,  0xBD766B5B,  0xBDA0292C,  0xBE474874,  0xBE9EE60B,
  0xBE813D0D,  0xBD1D7AF0,  0xBE0D1621,  0xBDD4F4AB,  0xBE808979,  0x3D836E2A,  0xBEB6DBDD,  0xBB188060,
  0xBDD16EA8,  0xBE5AC3E6,  0xBEFD0BF7,  0xBEBEDECE,  0xBD7C39C7,  0xBE3547C5,  0xBE4C6E0C,  0xBC871F55,
  0xBE53110B,  0x3E5332A1,  0x3E29E2E1,  0xBDA196D1,  0xBE305A21,  0xBD49E9ED,  0xBD0437C0,  0xBD8E6FC6,
  0xBDA091F7,  0xBDD45E88,  0xBDBFE00C,  0xBC936084,  0xBD750A63,  0xBD8C86AC,  0xBCD6F9FB,  0xBE5A5DA1,
  0xBE145D6A,  0xBCF589FF,  0xBD5A5939,  0xBD11713C,  0xBDC8C6B5,  0xBDB7BDB2,  0xBD523714,  0xBD70B1B7,
  0xBEFA2905,  0xBF065B65,  0xBDDABD4B,  0xBE2D15CE,  0xBD13AB0C,  0xBDD4865C,  0xBEC72942,  0xBEBB904C,
  0xBE4E924A,  0xBCE91DDB,  0xBD99C520,  0xBDDF8A35,  0x3C9F3684,  0xBD17C70B,  0x3E0555A4,  0xBD689D58,
  0x3D031AF0,  0xBC1C2AB1,  0xBD356E65,  0xBD5D9025,  0xBB980662,  0xBD02E9F6,  0xBDE5B8EC,  0xBCB9D562,
  0x3CF7C943,  0xBDBFD5FB,  0xBD237B06,  0xBE481EEC,  0xBE1EFD03,  0xBE28E61B,  0xBD67BBEC,  0xBE3E6D67,
  0x3DE7628D,  0xBE19F72D,  0xBDC16BBA,  0x3CEAAACA,  0xBD481654,  0xBD5E7B86,  0xBD37AAA4,  0xBCA06B6E,
  0xBD8C72B9,  0xBDEB8423,  0xBDD36CD9,  0xBDC56C95,  0xBDA60730,  0xBEB69045,  0xBEAF9715,  0xBE50A6B0,
  0x3E80BAEC,  0x3EE0719C,  0x3F049171,  0x3D30B6C6,  0xBEC5FA19,  0xBF1FFAC4,  0xBE237B30,  0xBD84D476,
  0xBE38090E,  0xBEDFE34C,  0xBE6B2D97,  0xBD8420D9,  0xBCA10D4D,  0x3E98E3AB,  0x3DAAE471,  0x3EA6AB14,
  0x3E32CE2D,  0x3CA26F6C,  0xBDEBD7A3,  0xBE3FA9AC,  0xBE82F5EC,  0xBE6BADFB,  0xBE8BCA9B,  0x3D0B6895,
  0xBDA37038,  0xBE04FD25,  0xBE2B127E,  0xBE33AAF0,  0xBE0F1146,  0xBDF25810,  0xBDC6DAC5,  0xBC833823,
  0x3CC12D4F,  0xBD1E357D,  0xBBEE8EA4,  0xBC8C17C9,  0xBD1F7248,  0xBD3065C8,  0xBD1A7734,  0xBCF5BF85,
  0x3D9FE1A7,  0x3C2391BB,  0xBE2DE15A,  0xBD5EF8C2,  0x3DA44CCB,  0xBE194E35,  0xBD56604C,  0xBD2ACEBC,
  0xBD2902E7,  0xBD8D4EF5,  0xBDAC0366,  0xBD9EAD1D,  0xBD776C4C,  0xBD7852AD,  0xBE940A75,  0xBC575792,
  0xBC1C529B,  0xBD9F765E,  0x3D60347E,  0xBE62557D,  0xBDA0505D,  0xBD08215F,  0xBDD6EBDF,  0xBE19697A,
  0xBD7B7B92,  0xBD8F2DAF,  0xBD070B32,  0xBCBA316B,  0xBCCB12CE,  0xBD0F3810,  0x3B96DB14,  0xBD6D528A,
  0xBE3F1AAA,  0xBE46EF00,  0xBE622D65,  0xBD1E4464,  0xBDABEE83,  0xBE78918C,  0xBE8A4B88,  0xBE5E0C03,
  0xBDCC5041,  0xBE3D5921,  0xBE79CE20,  0x3D09BF44,  0xBE7487D3,  0xBE88BCE3,  0xBBB823EE,  0x3E7BA1ED,
  0x3E9D6520,  0xBDE41D80,  0xBEA56D51,  0xBE85B742,  0xBE8F8505,  0xBE626EA7,  0xBE55AB92,  0xBE3F4E99,
  0xBE1D10C3,  0xBE53FD23,  0xBE59AD6B,  0xBDBE7150,  0xBD99DD07,  0xBE179DE2,  0xBDDF4817,  0xBE4E2110,
  0xBDD0DDBC,  0x3B84D010,  0xBE0CC4ED,  0xBD7556A9,  0xBD769583,  0xBD054FA1,  0xBDB359C9,  0xBE10EBAB,
  0xBDE10E36,  0x3BC37664,  0xBDD5578E,  0xBD23EF54,  0xBDBB0C29,  0xBD3805D3,  0x3DA6A012,  0x3C4212F6,
  0xBDD63BC3,  0xBDD5F80F,  0xBDC90670,  0xBD0102A5,  0xBD22C3BE,  0xBDA8AD51,  0xBCA8C0A3,  0x3BF50ACE,
  0x3D9202EB,  0xBCF4D00D,  0x3D539900,  0xBD802728,  0xBBD18A71,  0xBCD7CC18,  0xBBE705A9,  0xBD9916FC,
  0x3E856C69,  0xBD95F203,  0x3DF3EFA3,  0x3DCB1DFF,  0xBDDE27BC,  0xBDFA60FF,  0xBE23FDE2,  0xBDA73B3D,
  0xBDA09CAC,  0xBC5D7214,  0xBD4C8838,  0xBE2E5813,  0xBE4B579A,  0xBD2FE3ED,  0xBDB2BE22,  0xBE486F7C,
  0xBDAC067D,  0x3E0FDD6B,  0x3D3403AC,  0xBDC1B2C7,  0xBE00C5CF,  0xBE20A790,  0xBDCB20E7,  0xBDDBC928,
  0xBDF5079A,  0xBD82C8BF,  0xBDFF3D37,  0xBE184214,  0xBE6A691F,  0x3E6DD67C,  0x3EBCB844,  0x3E4FEB4C,
  0x3C9C9768,  0xBCC0D594,  0xBD8DFFD8,  0xBD2C534A,  0xBD615A8D,  0xBD8BB922,  0xBDA21085,  0xBC4CB5AF,
  0xBB9947A7,  0x3BB60DB2,  0xBDF65C6D,  0x3C08C54D,  0xBC553A45,  0x3DAB6044,  0x3D00D1DA,  0x3D00B807,
  0x3CD09162,  0xBC8F9ABB,  0xBE20019C,  0xBE30B683,  0x3D9E4D91,  0xBCC3717B,  0xBE18852D,  0xBE256690,
  0xBE18FA3A,  0xBE5544EC,  0xBE942D15,  0xBDA17DD2,  0xBDB196E1,  0xBD25AC15,  0xBD9F8628,  0xBE843327,
  0xBE5BAD49,  0xBB174FE4,  0xBB492F70,  0xBDAEF940,  0x3F0DE051,  0xBCBF0DE8,  0xBE40499B,  0xBD92C316,
  0xBE389F2A,  0x3DCC559C,  0xBE056406,  0xBD62001D,  0x3EA02167,  0xBDC56963,  0xBE1A732C,  0xBDEC3217,
  0xBD6A350D,  0x3ECC4E4B,  0x3EF96850,  0x3C8C6072,  0xBDB18F16,  0xBDECF1CC,  0xBD08FFE3,  0xBCF7E6A7,
  0xBD25591D,  0xBD05C721,  0xBCFC2140,  0xBA99823D,  0xBCEF7D33,  0x3C594358,  0x3B7DE707,  0xBE02F674,
  0xBDF78FEF,  0xBD821095,  0xBCBC192F,  0xBDB0BFC8,  0xBD99E41F,  0xBDD04B48,  0xBD902F05,  0xBDA8548A,
  0xBEE34C9F,  0xBE321C6D,  0xBE36CD2F,  0x3E1F2AC1,  0x3E5C0735,  0xBD7E49D8,  0xBEB3994C,  0xBED11614,
  0xBE2CA7E1,  0x3DB62962,  0xBDD30425,  0xBDBBC691,  0xBD1D3FFF,  0x3D0B8381,  0x3D234BAC,  0xBC03FD30,
  0x3E1C0E78,  0xBA2E94A3,  0xBD5A8C6A,  0xBC591519,  0xBD11600F,  0x3C7888D2,  0xBDD0CC2C,  0xBDA5E346,
  0xBB9965D8,  0xBCAD03EA,  0xBD7924C0,  0xBE2A2C4B,  0xBD8F1B9A,  0xBDD83CAA,  0xBE308E70,  0xBE1C4520,
  0xBD02072B,  0xBCD552EF,  0xBE08CEB8,  0xBD95F794,  0xBD4A3764,  0xBD62FD66,  0xBD7947BD,  0xBCF51947,
  0xBD1FFBDF,  0xBDFA7806,  0xBC19EFC4,  0xBAB6DE10,  0xBCFFDB72,  0xBEAA8CEA,  0xBEA0ED95,  0xBE7630B7,
  0xBDD55C97,  0x3D1AF4A0,  0x3E8715AD,  0xBDCF2425,  0xBE27B6E6,  0xBE62FC47,  0xBDE98B9E,  0xBE16919D,
  0xBE2A19E7,  0xBE7FD084,  0xBDF8861C,  0xBDD11A03,  0x3D3F1BAE,  0x3C15B61A,  0xBB2C9D66,  0x3D52F5B8,
  0xBE338C94,  0xBE804306,  0xBE21DB1D,  0x3D70E8EA,  0x3D9B8A0A,  0xBE1E6147,  0xBE00023E,  0xBDC435F9,
  0x3CE48F4A,  0x3DFAA9DA,  0xBD65A7BF,  0x3DEFAD46,  0xBDA8E470,  0xBD90F81E,  0x3DA7EBA7,  0x3DC234CD,
  0x3D91C949,  0x3C32E529,  0x3CEEED70,  0xBD104EAE,  0x3D1B3F8B,  0x3CDA70C7,  0x3C19EAA1,  0xBCEAF58D,
  0xB9A649C9,  0xBC592B40,  0x3C089D55,  0xBBA291E1,  0xBBB5F0EA,  0xBD81A7FC,  0xBDFE8A74,  0xBDF7EBD2,
  0xBD3CBA56,  0xBCDAA4A4,  0xBD929CCD,  0xBDC0E689,  0xBCABBD2E,  0x3C45665E,  0xBD481A47,  0xBD8908BF,
  0xBD7AE601,  0xBD8FEE71,  0xBD9B02F4,  0xBCCD5F7F,  0xBCEC9E70,  0xBD37AB45,  0xBCA03E06,  0x3C5CC494,
  0xBCE19125,  0x3D421097,  0xBC6ACD00,  0xBC582D34,  0xBC45A33C,  0xBD841A91,  0xBC8A3C7F,  0xBD3488A2,
  0xBD81A514,  0xBD972E14,  0xBAEEE4ED,  0xBD966D48,  0x3DB45AF6,  0x3DCDC437,  0xBDA54AE1,  0xBD8BC491,
  0xBD020C0D,  0xBCC4CA92,  0xBBA80A03,  0xBD4B2182,  0xBC2504CE,  0xBD0E2B41,  0xBD021ACF,  0xBAFF7208,
  0xBCE82064,  0xBD705D7E,  0xBDB098DC,  0xBD2CC632,  0xBD6A6480,  0xBC1B2C66,  0x3AB183DA,  0xBB10EDE7,
  0xBD2A3D1A,  0xBCE86964,  0xBC6CFBA5,  0x3CA5A3AD,  0xBDB2ABD9,  0xBE1DB5CB,  0xBD3E08BD,  0xBD911FA3,
  0xBC804EF7,  0xBD187839,  0xB969F5CB,  0xBCA3809B,  0x3CB5C5F1,  0x3CACB070,  0xBBCD6952,  0x3DA37A67,
  0x3D94D85A,  0xBD83EB44,  0xBC3FCA97,  0x3C4167E4,  0xBB39AD9A,  0xBCBF4732,  0xBCFEB35B,  0xBD40B7AD,
  0xBD088805,  0xBDA67B8C,  0xBD18CF18,  0x3DCC1E65,  0xBC697F97,  0x3BFC2038,  0xBD4DDD4E,  0xBC397E8A,
  0x3DB0465B,  0x3D8AF5E2,  0xBCB7DE35,  0x3E3C7291,  0xBC9C4C68,  0xBD7F0D4E,  0xBD2CC1D8,  0xBD18D24A,
  0xBD13ABE9,  0x3D189892,  0xBCBFC406,  0xBD68B2EF,  0xBD0AD60C,  0x3C859855,  0xBE02A662,  0xBDC166FB,
  0x3BCEC540,  0xBDE36D05,  0xBD97A5B9,  0xBD8F214E,  0xBB22A930,  0x3D3BAB7D,  0xBDAAD607,  0x3E3FB115,
  0xBCBA7072,  0x3B01F48E,  0xBE01CFD5,  0xBDAAE233,  0x3DAB5470,  0x3DCE15F4,  0x3D36412F,  0x3D260F35,
  0x3C3FC93B,  0xBD3B613C,  0x3D0F0F62,  0xBCB6258D,  0xBDA07E6E,  0xBDB0AF0E,  0x3BC7910C,  0xBD85DDD2,
  0x3C1FE4F8,  0xBCAE93C7,  0x3C6F277C,  0x3B41E878,  0x3D971F9A,  0xBC23FEAB,  0xBD3D778D,  0x3D0D1923,
  0x3D76EBF5,  0x3A14EEC6,  0x3CDC1445,  0x3C2D3D29,  0xBD1F3847,  0xBD0ED09B,  0x3D766781,  0xBD56E9B7,
  0x3CBC8859,  0x3C914910,  0xBD94CF49,  0xBD1EEF37,  0x3E8760D4,  0xBDE66189,  0xBD8D1F0E,  0xBDC635B3,
  0xBDFAD7EC,  0xBE372442,  0xBDF6F2C4,  0xBD9C929E,  0xBCE7E757,  0xBD9CBE18,  0xBDC8497F,  0xBDB54CB6,
  0xBE516E35,  0xBE9353E6,  0xBCF53BF6,  0x3DEB78A7,  0xBD065150,  0xBD892D98,  0xBDD461C2,  0xBD97B114,
  0xBD87690A,  0xBE0D2484,  0xBD6CC11E,  0xBC3BFA1C,  0xBCF99066,  0xBD5D0295,  0xBDC5FC54,  0xBDC13BA6,
  0xBD0EE694,  0xBDB7EBFC,  0xBB91AE3A,  0x3E24C6FC,  0x3A7C2675,  0x3D27ED5D,  0x3BDB75AA,  0xBCC1C3FE,
  0xBC3E660B,  0x3C1A79A7,  0xBBB05285,  0xBD13231F,  0xBC79660B,  0xBC8C9E0D,  0xBC9FEC1C,  0x3D9058BE,
  0x3DC418C7,  0x3DA2A4B3,  0xBD2268B4,  0x3BBE6FB4,  0xBBFA591F,  0x3C1144F7,  0xBC7D09C8,  0x3CB128D8,
  0xBD937A92,  0xBDB76CE8,  0xBE208D92,  0xBE16C50D,  0xBE15FC01,  0xBE374A13,  0x3CA3A524,  0xBD047029,
  0x3DAAC845,  0x3BF1971F,  0xBDA6602B,  0x3D9DD9F1,  0xBCF70E09,  0x3E0EDC06,  0xBD2894F9,  0x3CF09406,
  0xBD20CADA,  0xBC3E5704,  0xBC7197C1,  0xBC927D4B,  0x3BF0BBA0,  0xBDA426C0,  0xBCBE0CE1,  0xBD65D87C,
  0xBD39CED4,  0xBD8F0DD0,  0xBBEB5A2D,  0xBCC1916C,  0x3D156A64,  0x3CF524AB,  0xBD3D6CD6,  0x3D9E914B,
  0x3C33F603,  0xBC5A0DF5,  0x3C439D69,  0xBAAFDEF1,  0x3CB7F723,  0xBCD2D35A,  0xBD9719C3,  0xBBC70A24,
  0xBC13B0B1,  0xBD81B4DC,  0x3D045B5A,  0x3D766FB5,  0x3E18EAB3,  0xBD5ACDBE,  0xBD72816F,  0xBDA3C194,
  0xBE22E1F1,  0xBD9DAE57,  0xBDA604FE,  0xBD0DF1BA,  0xBDDE92E5,  0x3DC85774,  0xBDB1B9EA,  0x3C9E6B80,
  0xBCCDD9CC,  0x3C00BBE1,  0xBCBDB330,  0xBDA20BD7,  0xBD9877E0,  0xBC7C1110,  0xBD414075,  0xBDD6B094,
  0xBDBAEEFA,  0xBD83E2AD,  0xBE1B26BF,  0xBDFBC2EE,  0xBD59CC97,  0xBE1EEC53,  0xBD5AB246,  0xBDF01C31,
  0xBE155D28,  0xBE6E39F0,  0xBD80E1DB,  0xBDCF6C8D,  0xBE86DE9F,  0xBE09F3A5,  0xBE2BAC17,  0xBECE580B,
  0xBE6C0526,  0xBD0DFCAE,  0xBCC33D5F,  0xBC611AD6,  0x3AEE11C0,  0x3DCBCDC0,  0x3E15EA83,  0xBDC81AB4,
  0xBC4953CF,  0xBDB2D80E,  0x3D2ED4F5,  0xBE6D5C05,  0xBE6D1653,  0xBE7BE5EE,  0xBE9D2C86,  0xBE5C35E6,
  0xBDC01F45,  0xBE2CE353,  0xBF0492AF,  0xBE2CFD95,  0xBE29DD5B,  0xBDA6E66B,  0x3DBCBF31,  0xBE29AB32,
  0xBE322BC2,  0x3A5676CA,  0xBE076005,  0xBE0F4C0C,  0x3EF9D941,  0x3F2BB52B,  0x3F217BDC,  0xBE7C8B59,
  0xBDA44434,  0xBE67FB3C,  0xBDFEE01A,  0xBDE6CDE3,  0xBEA6211A,  0xBEA8B0D5,  0xBEBFF691,  0xBDA2DDC8,
  0xBE87282D,  0x3E847C9A,  0x3EDB4F4D,  0xBE1828E2,  0xBE23C719,  0xBD88FDED,  0xBE10CB9A,  0xBCA857DC,
  0xBD97F292,  0xBDDFEABF,  0x3B323C0B,  0xBD8D3BF1,  0xBE382EE4,  0xBD2556AC,  0x3C49FCE6,  0xBE8E3958,
  0xBE59DB89,  0xBE2C583E,  0xBE7F2EAD,  0xBE5CFEA1,  0xBE3A7BEC,  0xBE19195A,  0xBE4BF1DF,  0xBE852F4E,
  0xBEFF1A62,  0xBF196AEB,  0xBF1B5BA8,  0xBEA012DE,  0xBE35A5AE,  0x3D05A3EF,  0xBEB50DFC,  0xBED8EBC3,
  0xBE197F18,  0x3DF5C390,  0xBDCECB96,  0xBE436B07,  0xBD5A9D12,  0xBDA7590A,  0x3D5558C8,  0xBDBE8CF2,
  0x3D814B7C,  0xBE1014C7,  0xBDADEF06,  0xBDA2802B,  0xBCAE5282,  0xBDDEA0BF,  0xBE05DF8B,  0xBDA1AB0A,
  0xBD091582,  0x3C121ADE,  0xBDBA65BB,  0xBE8CC7FA,  0xBEBEB99B,  0xBE5BDEBC,  0xBE114E41,  0xBE59CAC1,
  0xBDC000CF,  0x3EABACFB,  0x3E633840,  0x3D854B01,  0x3CA79D42,  0xBCE354E4,  0x3C5FEE89,  0x3C45F61F,
  0xBCF127C4,  0xBC73DAD1,  0xBDDC85AE,  0xBDB60A07,  0x3D81DA08,  0xBE5905AD,  0xBEE5FB28,  0xBED1CC0A,
  0xBD87B249,  0x3D46CF4E,  0xBDACB12E,  0x3D685F75,  0xBE3F8271,  0xBE8D863E,  0xBE2E76DA,  0xBDE90A31,
  0xBEA3EDB8,  0xBDD4C477,  0xBE03CB81,  0xBD73F01A,  0xBE118BF5,  0x3DB00114,  0x3DFBBDA6,  0xBE78F431,
  0xBE049840,  0xBE5D5F67,  0xBF1ACDB0,  0xBE3F24EF,  0x3DA2FF3F,  0xBDB58863,  0xBE704FDA,  0xBE58B9E3,
  0xBD88E132,  0xBD97361B,  0xBD5638AB,  0xBE26AAEF,  0xBDE7F0D4,  0xBDDEB9CF,  0x39A853E1,  0xBDB652FD,
  0xBD9DB452,  0xBDE743A9,  0xBC512251,  0xBDA36155,  0xBDAD8CDA,  0xBD9E4653,  0xBD647C1A,  0xBD90B484,
  0x3CB72ECD,  0xBC89FCCE,  0xBDE37CD7,  0xBD48E4F9,  0xBD3DFBA4,  0xBE131F02,  0xBE6448FC,  0xBE1E6858,
  0xBD6F4A8F,  0xBD8F709E,  0xBC1CA563,  0xBDE29899,  0xBDD41A1B,  0xBE617D19,  0xBF35E93F,  0x3DE6BD8A,
  0xBDAAA8F4,  0xBE0A69CD,  0xBA91AEE3,  0xBE581177,  0xBD621F84,  0xBD5D98AF,  0xBE335FFA,  0xBDCD865D,
  0xBD92925A,  0xBD701947,  0xBDB944ED,  0xBE1556DD,  0xBDA683A6,  0xBD6D464A,  0xBC4463FD,  0xBD1EB122,
  0xBE8F5435,  0xBEB1E039,  0xBEA1825D,  0xBE42BDEE,  0xBE5D1266,  0xBE029873,  0xBE7CB2F7,  0xBE3E6643,
  0xBDC35682,  0xBE6DF09D,  0xBE1EE1A4,  0xBE377F6A,  0xBE5E10B6,  0xBDE6F766,  0xBDACFB5C,  0x3D0CC767,
  0x3DEFEDE6,  0xBE8B348A,  0xBE0BB206,  0xBE2C22EF,  0xBD3E87BB,  0xBD4A4817,  0xBD908450,  0xBB038E95,
  0xBE668A23,  0xBE084816,  0xBECF3063,  0xBE0C71C9,  0xBE15C902,  0x3D3E6A77,  0xBE1A752D,  0xBCC01881,
  0xBCE87F42,  0xBDBF7F5B,  0xBD92D8DD,  0xBDEFDA25,  0xBE4946D6,  0xBD362016,  0xBE809EAE,  0xBD2A2A30,
  0xBDF01527,  0xBD7ACB42,  0x3C720167,  0xBD8D459A,  0xBD1531F0,  0xBDF1CCA8,  0x3CB232DB,  0xBDCF9C48,
  0xBD7CBFAA,  0xBDC76E57,  0xBD9E5E9D,  0xBD8F8CFE,  0xBC917E07,  0xBD2B6259,  0xBC53DBE7,  0xBDDBBDFB,
  0xBD35680F,  0x3BC9E300,  0xBD4D6886,  0xBCDA7444,  0xBC982BD5,  0x398C0187,  0xBDC8BCD4,  0xBCFE7CF0,
  0xBD1B0580,  0x3DC2E258,  0xBCF4AEEC,  0x3DA31F8A,  0x3D62B12F,  0xBE2D45CC,  0xBE846EB5,  0xBE8885EA,
  0xBE9AA98D,  0xBDFDB1A4,  0x3CA0E384,  0xBDE8890E,  0xBD72BEAE,  0xBBE90CBA,  0xBE4341B1,  0xBE887358,
  0xBC9A93A7,  0x3E699C39,  0xBE0BAA10,  0xBBE301E1,  0xBE3E9D05,  0xBE92412D,  0xBE537E6E,  0xBDEC7062,
  0xBE34CE46,  0xBD9EF3EA,  0xBE37CB27,  0xBE2C97DF,  0xBE549DD9,  0x3D43635B,  0x3EFD72B3,  0x3D75466F,
  0xBD971C4E,  0x3E9DB89F,  0x3DB3BD45,  0x3DD2EB48,  0x3E46E703,  0x3E8D1983,  0xBE01C69E,  0x3CEFB9EC,
  0x3E58FF36,  0xBB15541F,  0x3B4A1FD7,  0x3E34F594,  0x3E01C4BD,  0x3D8B47E8,  0x3DF3054F,  0xBD9E8A3E,
  0x3C3B4720,  0x3DE251CE,  0x3D30592E,  0xBDD86049,  0xBE0DED3B,  0xBE32D5FD,  0xBEB816E3,  0xBED27D26,
  0xBEA490B0,  0xBEA2CD93,  0xBE92938F,  0xBE665590,  0xBDA0BEEC,  0x3BDAC5AF,  0xBEA39CD5,  0xBDF8E0CA,
  0xBE151CEF,  0xBE91D9D9,  0xBDC5D143,  0xBE73C7D3,  0xBC1351BF,  0xBE94550D,  0xBE45346B,  0x3C109D2C,
  0x3CBC2E2C,  0xBE1069B5,  0x3AF0AA46,  0xBE38E6D3,  0xBE352B21,  0xBE379BCB,  0xBE01B37B,  0xBEA4129C,
  0xBE6F0972,  0xBDFE7A6C,  0xBE18DF1B,  0xBDD7F469,  0xBB4D829C,  0x3E932E20,  0x3E4F13BF,  0x3E531DB1,
  0xBD49AF98,  0x3DD954C7,  0x3E240C77,  0xBD8F449D,  0x3EA179E8,  0x3DF3D62F,  0xBE164A06,  0x3F0283A3,
  0x3F16CC7B,  0x3F098E16,  0x3F1BD07C,  0x3EE2906E,  0x3ED0ADA2,  0x3EAAD8A0,  0x3E57F56E,  0x3E3A90D4,
  0x3DB484BB,  0xBDDB5ADF,  0xBE300B52,  0xBE80FAA5,  0xBE093B30,  0xBE01AA16,  0xBDCB8021,  0xBDB2F409,
  0x3E82DB71,  0xBD9F5815,  0xBD63FF45,  0x3D28D263,  0xBD5B7E45,  0x3E19943D,  0x3EF952A4,  0xBE11B374,
  0x3E322201,  0x3EEB31AB,  0xBD9268E5,  0x3CED96ED,  0x3D787E80,  0xBD73EA76,  0xBC8A99CD,  0x3C554643,
  0xBDC0E56A,  0x3C4DC618,  0x3BAEC588,  0xBD98786B,  0xBDAD883B,  0xBE39E0B7,  0xBCE0DAAF,  0xBE1CDE0F,
  0xBE22D2DF,  0xBD85DD82,  0xBE220317,  0xBE1BA231,  0xBD632512,  0x3D1BB8BB,  0x3D09D156,  0xBD889224,
  0xBD074DF8,  0xBD3112A4,  0xBD830294,  0xBBFEFC34,  0xBD88B882,  0xBE988B65,  0xBE8A8715,  0xBE90F72C,
  0xBEEF3274,  0xBE5EFD51,  0xBE9CAB3B,  0xBEBA1D3B,  0xBD9A8274,  0xBCC6A98B,  0xBDCCC9FB,  0xBD807E28,
  0x3ED9FEEC,  0x3CD02724,  0x3B8DF559,  0x3F3C2300,  0xBCD7B27C,  0xBE7F24CC,  0x3E5A6AA9,  0xBE418018,
  0xBF04CE6F,  0xBEA2D1A2,  0xBE1FC191,  0xBF0B9396,  0xBEEDBD2C,  0xBE39FDED,  0xBEA65977,  0xBF0DD229,
  0xBC9B461C,  0x3E659866,  0x3E6B1CD1,  0x3BD98ECD,  0x3DB04F11,  0x3E1BC987,  0xBD26ED83,  0xBD77CE1B,
  0x3E73B177,  0xBD61E063,  0x3DB6E8D3,  0x3D838474,  0x3E3C78B5,  0x3E0B8451,  0x3D8F9936,  0xBDA25113,
  0xBD17039A,  0x3E120018,  0xBD1820B5,  0x3A1D2BE6,  0xBD57346A,  0xBE12DA9A,  0xBE516CD5,  0xBE4FAA54,
  0xBDB180DF,  0xBE223C15,  0xBE2364D5,  0xBE9270AC,  0xBE14FC26,  0xBDB7D57E,  0xBE288C17,  0x3B19B434,
  0xBE94404F,  0xBDE0A246,  0x3C0C676E,  0xBE64EAC5,  0xBE2E67E7,  0xBE54C48F,  0xBC298D4B,  0x3BD038B9,
  0xBDCC529A,  0xBDB915D1,  0xBA60AF46,  0xBD08C637,  0xBC63CD1B,  0xBDB4F83C,  0xBE17551A,  0xBE710B35,
  0xBE3774B6,  0xBE41F15B,  0xBE132A7C,  0x3F01E31E,  0x3F22BDF0,  0x3EA73988,  0xBD3D8A7B,  0xBD856111,
  0xBDD9DF66,  0xBD87C424,  0xBD01D22F,  0xBD43A131,  0xBC044B69,  0xBD257DBC,  0xBDA8389F,  0x3E024B4B,
  0x3DC6643B,  0x3E16F48A,  0xBCEB0C68,  0x3B361D9D,  0x3D1BF5BB,  0xBDB86977,  0x3D043D58,  0xBCB4CFCE,
  0xBDA4D3AA,  0xBD73FC6B,  0x3B7BF9B5,  0xBDE0D9C3,  0xBE827B2E,  0xBEB559D5,  0xBDBE6478,  0xBCE05421,
  0x3E32F5D6,  0x3DEA928B,  0xBA90FD83,  0xBD789EFD,  0xBE0B8A66,  0xBDB7689E,  0x3E116836,  0x3D08A52D,
  0xBC383347,  0x3E28ABCC,  0xBC77494A,  0xBD00DCCE,  0x3BEBA6A6,  0xBD977C94,  0xBD142DAE,  0xBD0CC66F,
  0xBD251608,  0xBBF930D7,  0xBD3E580D,  0xBD21DD67,  0xBD7807CB,  0x3D923FE9,  0xBD862145,  0xBC5839AD,
  0x3D8C7E8F,  0xBD22A8AA,  0x3CA67C8C,  0xBD25F41C,  0xBACE1975,  0xBDAEA068,  0xBD966363,  0x3D904FB8,
  0xBC562634,  0xBDAAC8CD,  0xBCDF8172,  0x3DF4EEFB,  0x3DEF50FB,  0xBE3E3705,  0xBE2373C8,  0xBE0F24C8,
  0xBE641052,  0xBE65DEA4,  0xBE76D66B,  0xBD7DD21F,  0xBE14A51F,  0x3D7CCBA5,  0x3BE8D2C0,  0xBD736972,
  0x3E672A9E,  0xBE1AF082,  0xBE0EA58D,  0x3EA5A300,  0xBE4EDC30,  0x3DC42137,  0x3EDECD17,  0xBDA8B64D,
  0xBE49B0F8,  0xBBB2B259,  0xBE398686,  0xBE6C1FC1,  0xBD93C6F0,  0xBE0A2D9C,  0xBE8E339B,  0xBE845D88,
  0x3E37E516,  0x3E0595F4,  0x3DB653D1,  0x3DA04F20,  0xBDB989E2,  0x3E6D3087,  0xBDA4D1E7,  0xBE052B8D,
  0x3D1B577F,  0x3DB8FF85,  0x3C52FC44,  0xBCB4EAE3,  0xBE0E57C5,  0xBE255D2C,  0xBE300231,  0x3DA0F7BD,
  0x3DC077E3,  0x3DB109DA,  0xBD9EB3C6,  0xBBD64E27,  0xBA344847,  0xBF1082A5,  0xBECA5B1C,  0xBE4D93A9,
  0xBEBC1541,  0xBEB501BF,  0xBEF7050B,  0xBE31CAE0,  0xBD109D82,  0x3BCBE60F,  0xBE81865E,  0xBE19D4C3,
  0xBE720AC4,  0xBE83C1C8,  0xBE1D464C,  0xBD800A46,  0xBE43775D,  0xBE658D14,  0xBE509499,  0xBE2BD97C,
  0x3E86152A,  0xBE2D4A0B,  0xBE69EA11,  0xBDB49492,  0xBE8A6A7E,  0xBEBA4A37,  0xBE121A12,  0xBE533A0F,
  0xBE07B570,  0xBD11BD54,  0xBE4A86CE,  0x3ED8F105,  0x3ECA14F5,  0x3DFC3546,  0x3CB81CD8,  0xBC83A676,
  0x3C6A1098,  0xBD697294,  0x3BE66233,  0xBC4E9124,  0xBE2FF847,  0x3D77801E,  0x3DDE4CD0,  0xBD1BD7ED,
  0xBC89A4F5,  0xBC325F57,  0x3C4FF8D9,  0xBBCDBAD9,  0xBC8E7636,  0xBE0E764D,  0xBDBFAD45,  0xBCD5C0BA,
  0xBEBD6BCA,  0xBEC94A4A,  0xBF0BE5B9,  0xBF10C757,  0xBF1DC8F1,  0xBF4EB1A3,  0x3EFC81EE,  0x3D82C2AB,
  0x3E86532A,  0xBDE88029,  0x3D344030,  0x3C07805A,  0xBEE88713,  0xBDE50005,  0xBE28A6CA,  0xBE5FAD39,
  0xBE21F2C3,  0xBE7FAF48,  0xBD2AE455,  0xBD96B560,  0xBDA8664D,  0xBE09C55C,  0xBC3B8C81,  0xBD9B38F6,
  0xBE278B57,  0xBCE4D40A,  0xBD68CB20,  0x3E47BE67,  0xBDD4EA42,  0x3EB4CC54,  0xBE0815F2,  0x3E7F4B9F,
  0xBD5F8FEB,  0x3DF2C0B8,  0x3CB288E1,  0x3DA05E4C,  0xBD14BCB2,  0xBE0A7231,  0xBDB51BD6,  0x3DD125C7,
  0xBE0E5E51,  0xBE8A8814,  0x3E185E5C,  0x3F127233,  0x3F145044,  0x3CE83245,  0xBE9D43B2,  0xBEA25624,
  0xBF189E8A,  0xBEF14E15,  0xBEE55781,  0x3ED3FF81,  0xBE2DC32F,  0xBD8A4CC6,  0xBD5FBCA8,  0xBE1559DA,
  0xBE80D938,  0xBE872F80,  0xBDB83197,  0x3E82AFB4,  0xBE475590,  0xBDAF928D,  0xBE0769C8,  0x3EC68B1E,
  0x3E28B1DF,  0xBED3BA73,  0xBE5FC7BC,  0xBE904B62,  0x3EF70A23,  0xBE94A55C,  0xBE968581,  0xBE838138,
  0xBD8AE1EF,  0xBCB1454B,  0xBDD0B3E0,  0xBD3503DC,  0xBC1315E1,  0xBD23C2F5,  0x3C8A6213,  0xBC6A5202,
  0xBD1921FD,  0x3D29975E,  0x3D0CFE59,  0xBCC5F1FC,  0xBCD603C9,  0xBB598385,  0xBCE4955E,  0xBB3BA636,
  0x3DC328CC,  0xB9773D96,  0xBE39C14F,  0xBE7D7D88,  0xBDFBDEA3,  0xBDEB873B,  0xBE82BEAF,  0xBD956B42,
  0xBE24CABD,  0xBE571807,  0xBE2D13E3,  0xBCD5A622,  0xBD42D660,  0xBE056630,  0xBDAEEA59,  0xBDF5708E,
  0xBE1FC00E,  0xBD99C9CF,  0xBDC98B4A,  0xBD216B8F,  0xBE29A9A3,  0xBDDBFDB6,  0xBD782F93,  0x3F0E365B,
  0xBC43D5BE,  0xBDB9CD82,  0x3E6C1F60,  0x3D94021B,  0xBDC25391,  0xBE16FDA7,  0x3E033CEB,  0xBC0145B4,
  0xBDCEB5DB,  0x3CF66B9F,  0xBDFCF7E0,  0xBD2A6053,  0xBD6C5985,  0x3D03BC1D,  0xBD5687EC,  0xBD129716,
  0xBCA1B3BE,  0xBD10234A,  0xBD9FA209,  0xBC2F659F,  0xBBEFF486,  0xBD19A52F,  0xBDB973E1,  0xBD5B082D,
  0x3D13786B,  0xBD241FF3,  0xBC292B19,  0xBD49F5CF,  0xBD9F86A6,  0xBD956D08,  0xBD1EC665,  0xBDAA867F,
  0xBE17AB1A,  0xBE143C1C,  0x3D3A5B47,  0xBE255ACD,  0xBE37FFB0,  0xBE10999F,  0xBE0D9559,  0x3E1C0E3A,
  0xBE20FF72,  0xBD9FDFD7,  0xBD16107E,  0x3D23C393,  0x3DFE5B9A,  0xBD848B64,  0x3C5F465F,  0x3DC1D8AE,
  0xBD4DA354,  0xBD9B965F,  0x3CFED372,  0xBD87C7FC,  0xBD5B7F8C,  0xBD4E0DE6,  0xBD1F23CC,  0x3D47B464,
  0x3BB63A4A,  0x3AAF218E,  0xBD54C0EC,  0xBC9BAB79,  0xBC3D587F,  0xBCFA888E,  0xBE6E81B8,  0xBD5F98E9,
  0x3B01317A,  0xBE15DF95,  0xBD96F35B,  0x3DD0118D,  0x3D1C0B98,  0x3CC0FCE2,  0xBD8E88E8,  0xBD5597BD,
  0xBD9CA918,  0xBD38E681,  0x3A72EE07,  0x3C5EAFBC,  0xBD785EA7,  0xBE8EAFB4,  0xBEE420D4,  0xBE9F2EC8,
  0xBE4EF935,  0xBE8694BD,  0xBE0D7A25,  0x3E49D452,  0xBE4778BC,  0xBE158ED1,  0xBE1A3DFA,  0xBE3BD632,
  0x3D81177E,  0xBD50300C,  0xBDF6F502,  0xBD848094,  0xBD0BAB07,  0xBDCC35A9,  0xBD33BFA4,  0xBE3A1F26,
  0xBEA60D67,  0xBE59D6F5,  0xBDE297FD,  0xBE760B43,  0xBE794A49,  0xBD5668C7,  0xBC95FEDA,  0xBDDE4ADF,
  0xBC02FBC8,  0x3A77B297,  0x3D82A70D,  0xBD97DC99,  0xBA034AFB,  0x3E157C0E,  0xBDCABA17,  0xBD0F2CA1,
  0x3E1DA800,  0xBAE325D7,  0x3CE4A495,  0xBD2348F1,  0x3D3D92FC,  0xBDB153CE,  0xBC8BE9DF,  0xBDFF3E45,
  0xBDF11969,  0xBDBA8761,  0x3F0A8A64,  0xBEA1A056,  0x3E5DE368,  0xBEA2F526,  0x3CB728C2,  0xBDA2C4A3,
  0xBE8805DA,  0xBE393CD6,  0xBE28F0FB,  0xBBDFB260,  0x3CCECAD6,  0xBB97B077,  0xBE3E9B44,  0xBD231BFA,
  0xBD82C1B5,  0xBEB49F0D,  0xBDFC788D,  0x3C334B3C,  0xBE0C79B3,  0xBE8796E3,  0xBD0007B0,  0xBE6DF983,
  0xBE0AE43F,  0xBE6169A8,  0xBD8A5BCE,  0xBCB08D5A,  0xBE0053A5,  0xBDDB6E61,  0xBE29C17B,  0xBE9860DA,
  0xBE0EF68E,  0xBDD880CD,  0xBE374BC6,  0x3E36BF68,  0x3E3046EF,  0x3E8F923C,  0xBD5E7BE7,  0xBCF84A71,
  0xBCB2AD69,  0xBC8DE4CC,  0xBC5981C4,  0x3C47AF0A,  0xBD8C541C,  0x3D3EB0A5,  0xBC86F44C,  0xBD929220,
  0xBDACF802,  0xBC8D81B7,  0xBDE991E6,  0xBDB59032,  0xBDB9AFB2,  0xBD9C72A7,  0xBD9D12ED,  0xBBA8C516,
  0xBE9E147D,  0xBE826ABD,  0xBE6F8BAA,  0xBEE0395A,  0xBE7AAB4D,  0xBE83C775,  0x3E73CF49,  0x3E1FABE3,
  0x3DD4E15F,  0x3E087D77,  0xBD177A95,  0xBDA7D90E,  0xBE20A4A3,  0x3E118118,  0x3B0F1156,  0xBCDDBACA,
  0xBCA80008,  0x3DF4FD2E,  0xBCDC95F0,  0xBD1209A0,  0xBD218321,  0xBDF3CAC6,  0xBC90B9BD,  0x3C16B06C,
  0xBD87F46C,  0xBD76BFDC,  0xBD25FF12,  0xBDAD6FD0,  0x3E3559BE,  0x3E300971,  0xBD91BE42,  0x3E7F37D4,
  0xBD27065F,  0x3E9397AD,  0x3E248C63,  0x3D7B56F3,  0x3C73E3D1,  0xBDA24CFF,  0x3A3872D1,  0x3D450115,
  0x3D1CF425,  0x3DBDCA23,  0xBBB1CF83,  0xBD85299D,  0x3E8457C9,  0xBDB11E0A,  0x3A9C6160,  0xBD20BB0B,
  0xBCCF66E2,  0x3E22168C,  0xBE777E3B,  0x3EAE4471,  0xBE1ACA12,  0x3CBE1D7E,  0xBD9A60BB,  0xBE30894B,
  0xBE05D83D,  0xBE5B2E7A,  0xBE62D4FD,  0xBE072705,  0xBE9F4E2E,  0xBB1D36F6,  0xBE68DFA2,  0xBC9F15AE,
  0xBCCAD17B,  0xBD7E0F68,  0xBE481C97,  0xBD1F197D,  0xBD3E1390,  0xBE865F09,  0xBD96C556,  0xBE40F73E,
  0xBE10D7A5,  0xBCD7A162,  0xBDBCFB73,  0x3BCDDFBF,  0x3D71427A,  0xBC341BA1,  0xBD5DF438,  0x3C1DCCE3,
  0xBCD6D65A,  0x3DA4B0E4,  0x3DD4FC55,  0x3D51B02E,  0x3DDEFFFE,  0xBCF5AFB8,  0xBDCA85D1,  0x3C1CA7D4,
  0x3D621E99,  0xBC61A9F1,  0x3C9BEF7A,  0xBE1A7DE9,  0xBE143155,  0xBE6F6FAE,  0xBF031CF3,  0xBE9B2DEA,
  0xBEA54D20,  0xBEB2E414,  0xBE29C3DD,  0xBDCDC0DE,  0xBD1613F1,  0xBC6C34AF,  0xBD99F021,  0xBD826B01,
  0xBDDF1354,  0xBDA51B95,  0xBDB6AB16,  0xBE20060E,  0x3E4B6C76,  0xBED61D54,  0xBEA68609,  0xBE7815EF,
  0xBE96C92E,  0xBE6F3B38,  0x3F4317D7,  0x3E6CC67B,  0x3D9D6275,  0xBE459D1A,  0xBE84324B,  0xBE4A1C80,
  0xBE3B6ACF,  0x3DC90E5C,  0xBE45C753,  0xBDBBE957,  0x3EA50D6B,  0xBA803B36,  0xBD00ECAF,  0x3B4D0056,
  0x3E0D94D1,  0xBC21BB9E,  0x3D31EF93,  0x3E43B19E,  0xBC8365D5,  0x3D7BEFA2,  0x3E092655,  0xBD940D2A,
  0xBDBA7186,  0xBDAA387A,  0xBD5A8C96,  0xBDA3D5B4,  0xBD6E313F,  0xBC8E7F5D,  0xBD88CAAD,  0xBDA41B94,
  0x3F89D5A4,  0xBF066581,  0xBECEE151,  0xBC3762A8,  0xBEF8CE45,  0xBEA1D770,  0xBE52050C,  0xBEB7EE12,
  0xBDD5082D,  0xBD0EC251,  0xBE071BB5,  0xBDDAF5BF,  0xBE0B3FF4,  0xBC8FDEE4,  0xBD8E94BF,  0x3E425AA6,
  0xBD448153,  0xBC8B5E0B,  0xBDA11FEA,  0x3CD90501,  0xBD000F07,  0xBD5C5448,  0xBD4FB6DE,  0xBB6D79A9,
  0xBDB8A889,  0xBD8FA1F6,  0xBD23D4EA,  0x3E88BEDB,  0xBE36FB5E,  0xBDD0805E,  0xBDA97353,  0xBE26D193,
  0xBD3C94D2,  0xBE09E779,  0xBBCE1E72,  0xBDB9BF0D,  0xBD066C70,  0xBD26B5F6,  0xBDA38031,  0xBD19E158,
  0xBDD5C94B,  0xBD57BFFB,  0x3BB358DC,  0xBCFF0385,  0xBD4068B3,  0xBE8BE7E3,  0xBEB24557,  0xBEA787E8,
  0xBDFEB7A1,  0xBEC130D5,  0xBE548554,  0xBE953F4E,  0xBE7F7AC6,  0xBE87D1C6,  0xBE483D36,  0xBE3BB323,
  0xBE0EF708,  0xBD939F74,  0xBE407A99,  0x3C96FB23,  0xBDD0F428,  0xBE0858EA,  0xBDB52217,  0xBDDAB568,
  0xBD1678CE,  0xBBEDC5C9,  0xBE04E8C4,  0x3DC94A60,  0x3D858BF1,  0xBDE150F3,  0xBD4B847A,  0xBDBE06FC,
  0xBC85C24C,  0x3BAD1D26,  0x3DCA848B,  0x3D5281A7,  0xBE02665D,  0xBD883606,  0xBD62D209,  0xBD5BDC1B,
  0xBDFFB4A9,  0xBD26303E,  0x3DEF2722,  0x3DF01DA2,  0x3E0C8A70,  0x3D21B2AE,  0xBDFD4E8E,  0xBC3A1BFA,
  0xBD8714D0,  0xBD53DDB3,  0xBDDF07DA,  0xBDD765AD,  0xBDD21ABF,  0xBD63C183,  0xBE4AD3C4,  0xBE2F72F7,
  0xBD756BE2,  0xBDAD177E,  0xBE18FFE0,  0xBD7D8C73,  0x3B5F8449,  0xBD7BDD65,  0xBDE5EC4D,  0xBD015AC8,
  0xBD9F30B3,  0xBDCDA823,  0xBE245F65,  0xBE0454A5,  0x3D4DFC99,  0xBDE188A6,  0xBE0638AF,  0xBDF4BFFA,
  0xBE296443,  0x3E578652,  0x3E187442,  0xBE09A9ED,  0xBD412020,  0xBE2ADA86,  0xBE0F81CC,  0x3DD0316C,
  0xBCA5AC1E,  0x3DEA8658,  0xBE02BEB1,  0x3EBB9998,  0x3F03B215,  0x3E38400F,  0x3CD8DE4F,  0xBB6D8FAE,
  0xBD5E367F,  0xBD38D593,  0xBD4C496B,  0xBD281BCA,  0x3CEB09BF,  0xBC8875CD,  0xBD074725,  0xBD31041F,
  0xBD67E29D,  0xBCC9CA3E,  0xBDC73CC8,  0xBE3A7BC4,  0xBE0A6882,  0xBDC17B9F,  0xBDD160D2,  0xBD7F1F19,
  0xBE289346,  0x3D13E422,  0xB943EDD2,  0x3BA11D11,  0xBDF31719,  0xBEB9689F,  0xBE11A47C,  0xBE437A50,
  0x3DC579EF,  0xBD9AED95,  0xBCCAC14E,  0xBDE9A5B3,  0xBDFAAD46,  0xBD5B91F7,  0x3E8F6AB1,  0x3E3EC5CD,
  0x3DE1E402,  0xBDC1A325,  0xBD230742,  0x3D185300,  0xBD20DFE7,  0x3AE1C66F,  0xBB918D5A,  0x3B92C388,
  0xBD76A2BE,  0xBD8207AE,  0x3C69CAD1,  0x3BE7F521,  0x3C34036A,  0xBD839CB2,  0xBD6EDCAC,  0xBDDE89F1,
  0x3D0F4DC7,  0xBE0456D9,  0xBE1DE974,  0xBC59314A,  0x3C5B235C,  0x3D1DD25B,  0xBD070655,  0xBD13F402,
  0xBDCE76E7,  0xBD993426,  0xBB334118,  0xBCB3AD53,  0x3CC5457A,  0xBD3FE39A,  0xBE727744,  0xBE539EDF,
  0xBEB5CCB0,  0xBECEF77E,  0xBEAA3794,  0x3D85C301,  0x3D6AE25A,  0xBD8BB72B,  0xBE0779F1,  0xBD6F0FB8,
  0x3CB85E79,  0xBD9230CB,  0x3DA025BF,  0x3C5FA16A,  0x3E90BE46,  0xBC194127,  0xBE11E1B6,  0x3D176FE5,
  0xBD248C62,  0xBDD75FE4,  0xBD866E93,  0xBD4152D5,  0xBE077643,  0xBE2B65FA,  0xBDE2443F,  0xBDBCCBA6,
  0xBC1E0AE8,  0xBD01F980,  0xBB5C85F1,  0x3D7D03F6,  0x3BF8A0CE,  0xBC3B81F3,  0x3D054073,  0x3D8C0873,
  0xBC6854BC,  0xBD61F5EB,  0xBCAC33F0,  0xBCA83A58,  0x3D0DB27D,  0xBD065B09,  0xBD1B07EC,  0xBCCF1E2B,
  0x3D41DB4A,  0xBCF6C36A,  0xBD1B0481,  0x3D0EF3F3,  0x3C9FBF01,  0xBD45520E,  0x3C492037,  0xBDC44793,
  0xBD225BC6,  0xBD4F8FF6,  0xBDE8578C,  0xBDCD7AF4,  0xBD8618F5,  0xBCED2A69,  0xBBBB024F,  0xBDBC20DD,
  0x3B626772,  0x3E095210,  0xBDDC27F0,  0xBE492A58,  0xBD35A709,  0xBD1B1F3D,  0x3D719BBB,  0xBCE95F93,
  0xBD31921D,  0xBD13C9AC,  0x3C85FC34,  0x3D61E641,  0x3DD6C6D4,  0xBD910C66,  0xBD4C7881,  0xBD5F5C6D,
  0xBD76F288,  0xBD943F94,  0x3D1D9F4F,  0x3C4AF3D9,  0xBDCCD352,  0xBDA11750,  0xBBE39945,  0x3A59FBBE,
  0xBC285705,  0x3CB741B6,  0xBD7A0391,  0xBD807655,  0xBCB02EE4,  0x3C9B6A84,  0x3C72CB18,  0xBC562D5D,
  0xBD0A2591,  0xBCE2275A,  0xBD7A2660,  0xBD0365C1,  0xBBEECAD1,  0xBC8F6300,  0xBCBB6F2D,  0xBC890BF6,
  0x3D051ABB,  0x3DB25B11,  0x3D08E845,  0xBCB8D015,  0xBDFD2AF2,  0x3D54A0CC,  0xBD5B041C,  0xBC4E32C3,
  0xBE0DA0FE,  0xBCF51C88,  0x3D5DBD33,  0xBCDBE590,  0xBDA0F95B,  0x3CC37B94,  0x3BA28D3D,  0xBD2A1D98,
  0xBD4B804E,  0xBC3CA7FF,  0xB9AA3FF0,  0x3AAEF9C1,  0xBCEC2EF7,  0xBD5D3436,  0xBD5FED58,  0xBD024B25,
  0x3D832914,  0xBC6FFA1B,  0x3BEAF3AE,  0x3E119AB9,  0x3E5F493C,  0x3E53E3D7,  0x3DC76991,  0x3E6CF6CF,
  0x3E8348AF,  0x3E86CDFB,  0x3E032FA5,  0x3E93AEFE,  0xBD142F3E,  0xBD9C9BB2,  0xBD2FEBEA,  0x3D5E9159,
  0x3C8E4FA3,  0xBD34C458,  0xBC910442,  0xBCAFB04E,  0xBDA0E600,  0xBE068C78,  0xBDBB7830,  0xBB6B7544,
  0xBE548370,  0xBD450202,  0x3E1D19F1,  0x3D17F9D9,  0xBDCA3D36,  0xBDFEF4E6,  0xBD3B838D,  0xBC7D7A97,
  0xBD34B5FC,  0x3BB2AB98,  0xBCFBD823,  0x3D1971FB,  0x3D4334D3,  0x3C896CC1,  0xBD279423,  0xBDBCBC12,
  0xBC6C5309,  0xBC883C09,  0xBE57AB21,  0x3D39E666,  0x3E052EE7,  0x3D53DEDB,  0xBD9ECBDE,  0xBD0B1C55,
  0xBCA87EFA,  0x3E9319EE,  0x3EA4A485,  0x3C20EB2B,  0xBDE601FE,  0xBCB34EF1,  0xBD878F09,  0xBE12D031,
  0xBD4A941A,  0x3E5FB576,  0x3EE49885,  0x3EE2D65B,  0x3D044866,  0xBE1AA65E,  0xBE3B5947,  0x3D9E7F38,
  0x3E127C81,  0x3DA038C0,  0xBDBEE0E9,  0xBD4596BE,  0x3DF4DC34,  0xBD2B6F0D,  0xBDE952C8,  0xBEB37BC5,
  0xBE0FCA7F,  0xBC63861B,  0xBDF06494,  0xBE0D9E59,  0xBD416C7F,  0xBDAE2A96,  0xBDB3EB7F,  0xBCD345BB,
  0xBEB07548,  0xBE0D412B,  0xBD6ECBD9,  0xBE85A469,  0xBE33716D,  0xBE9F0ED9,  0xBE1B63AF,  0xBDBF784D,
  0xBE43AEA6,  0x3DBD597E,  0x3E7DD40A,  0xBE2DCA17,  0x3E0D850F,  0xBCBBB0DF,  0xBB026698,  0xBE532B84,
  0x3E4DB3F1,  0x3F0CBE62,  0xBE4B445E,  0x3F03B4F0,  0x3DEE6CB4,  0xBE75B604,  0x3B744113,  0xBC8C34CC,
  0xBD10B9EF,  0xBD32F918,  0xBCA024CC,  0xBD33E332,  0xBD2C8AE3,  0xBD974E58,  0xBDE57687,  0xBD84DBD8,
  0xBDDDF7E6,  0x3B24979E,  0x3D97C275,  0xBDDE646B,  0xBE19A0BE,  0xBDB7E200,  0xBC6FD4E6,  0xBD7CAF41,
  0x3CD8B10E,  0xBBA19E13,  0xBE35CAB8,  0xBE23F62B,  0xBEB3605A,  0xBF00AABD,  0x3D9CA917,  0xBDFDA322,
  0x3E6B8F13,  0xBCDA2567,  0xBDC2ED21,  0xBE0ACCF4,  0x3BD247C4,  0x3C0692F8,  0x3EFA6C4C,  0x3E1C1CE6,
  0xBD0FA7E6,  0xBDDE78C9,  0xBBAAA5AA,  0x3CE2A06C,  0xBD8BA1B5,  0xBD29C532,  0x3CCCD8E9,  0xBD5E41FD,
  0xBE054915,  0xBD90DBDD,  0xBC066D7D,  0xBD70D0A4,  0xBE07F821,  0xBD6F1191,  0xBCD8A5E5,  0xBD8E39A1,
  0x3C452CB4,  0xBDEE5E7F,  0xBD23CD24,  0x3E0C9ADF,  0x3AAD9B9B,  0x3D3F2B78,  0x3B06CA98,  0xBD74A511,
  0xBDA99049,  0xBDDB6B5C,  0x3DC1A5D2,  0x3CE17428,  0xBE62DA55,  0x3CB901D7,  0xBDDF7753,  0xBEA42B0C,
  0xBE16C11A,  0xBEEA6AF2,  0xBE92D6ED,  0xBE58B934,  0xBE0F7598,  0xBEE8D811,  0xBE2BDB66,  0xBE087283,
  0xBDBAB882,  0x3E1FEB73,  0x3D9C43E6,  0x3DCE6161,  0xBDD9398D,  0xBDACF20E,  0xBE840CF6,  0xBE18757E,
  0xBDD74851,  0xBE18EC66,  0xBD02DB43,  0xBD3311F4,  0xBE25FF7B,  0xBDC37A32,  0xBE516ED8,  0xBE6DA6ED,
  0x3E41E4E4,  0x3E093FD1,  0xBDE1C747,  0x3E0754C9,  0x3D73795B,  0xBD5CE404,  0x3CF87FF7,  0x3DB14BAA,
  0xBDCBC979,  0x3D064BAA,  0xBDA9B346,  0xBC0102BC,  0x3CCB117C,  0xBC802D3B,  0xBD052E85,  0x3DDE2F0B,
  0x3680842E,  0xBD27260E,  0xBE44AE53,  0xBD929E86,  0xBE4253A4,  0xBDD722A0,  0xBE69C6FD,  0xBE71387E,
  0xBE1B6D9F,  0xBE138627,  0xBEAED77A,  0xBE337533,  0xBDE8411B,  0xBE005EE2,  0xBE10F8E2,  0xBE2DF35F,
  0xBE231C48,  0xBD9C9298,  0xBE1039A3,  0xBE2D6521,  0xBDE8C2C8,  0xBDEE904A,  0xBCD75B2A,  0xBDBF17FF,
  0xBD297880,  0xBCFE543B,  0xBDE9F90F,  0xBE441C4E,  0xBDC624F3,  0xBE2B618D,  0x3E4C5F7E,  0xBCA16BED,
  0xBDA8FEBE,  0x3DAF6E82,  0xBD6314DB,  0xBDB21B64,  0x3C3603BD,  0x3D4F768C,  0xBD55C3A8,  0xBC6A3922,
  0x3E057315,  0xBB8FB875,  0xBD7887FC,  0xBC8976DC,  0x3D3613DE,  0xBD3B281D,  0xBAD22241,  0x3BC27C92,
  0xBB074ADF,  0xBA976D64,  0xBD2FCDA1,  0xBD67E079,  0xBCE22C3D,  0xBB85021E,  0xBD5D22DA,  0xBCE54681,
  0xBD2E874C,  0xBE5D8459,  0xBDDCF618,  0xBDE3268A,  0xBD68A416,  0xBDF0D86A,  0xBD8643B2,  0xBC8EE8FE,
  0xBD7BBEED,  0x3E1E1841,  0xBD8F8CFD,  0xBD84F7F9,  0x3DBDFB1B,  0x3D3413FE,  0xBE1AB34B,  0x3DDC5043,
  0x3DA7D9C7,  0xBE60F44A,  0xBB945FB1,  0x3CAA5A97,  0x3B00219C,  0x3C57E85A,  0xBB4AF5D3,  0xBD08266E,
  0xBD04CC89,  0xBD55CEA6,  0xBC978F07,  0xBD986EF3,  0xBDE7E674,  0xBDB92F35,  0xBDB4C0A1,  0xBD54DD9A,
  0xBC1DB671,  0xBDE3DFAB,  0x3CB307DA,  0xBCCBE7BD,  0xBDB1C5E1,  0x3D9F220B,  0xBD9C9FE5,  0x3D8D01AA,
  0x3B42F77E,  0xBE0B3260,  0xBCF221E0,  0xBD4FDEAC,  0xBDE35F2A,  0xBE385E4D,  0xBDCEC9F0,  0xBE674D60,
  0xBDA837D7,  0xBDFB9A35,  0xBE855543,  0xBDE5BC50,  0xBDB48C55,  0xBE50F0E5,  0xBC1107C5,  0x3EC87AD0,
  0xBEA0F0D6,  0xBC9267AE,  0x3E8D6437,  0xBE9216C6,  0xBCB9459F,  0x3EBD1700,  0xBE353390,  0xBE075306,
  0xBE1623C7,  0x3EB3E111,  0xBE6A4DF9,  0xBE5CC736,  0x3F0489EB,  0xBE4B12EB,  0xBECFF83A,  0x3F2F8E3C,

};

const uint32_t BIAS_CONV3_BITS[32] = 
{
  0x3F307EBF,  0x401D5248,  0xBD9992CB,  0xBDFFB0F6,  0xBCF1BBE6,  0xBE08B2AE,  0xBE1519EC,  0xBDFA13DB,
  0xBEBAB40D,  0xBF39C9D9,  0xBEDD9BB7,  0xBD407A33,  0xBE2C427C,  0x3EE8CEDC,  0x3FF5DD35,  0xBE7B3100,
  0xBE45C1F0,  0xBE519EBB,  0xBD713D67,  0xBD8AA240,  0xBF3DF309,  0xBE99E3EC,  0xBE8B359B,  0xBE90484E,
  0xBEDBC54E,  0xBE81EF94,  0xBE4CF9AB,  0xBE9885F9,  0xBEC788B1,  0x381EB09B,  0xBED066D8,  0xBE8A58A2,

};

const uint32_t WEIGHTS_CLS_BITS[320] = 
{
  0x3E346F6C,  0x3E4151BE,  0x3E8592C9,  0xBF89676A,  0xBB9316F0,  0x3EC525E5,  0x3E8B5238,  0xBF88851D,
  0x3DD1C1FE,  0x3EF3BCEB,  0xBE8D8FE9,  0xBDD434BF,  0x3F49B770,  0x3F234F03,  0x3F4D2A3E,  0x3DD7EDEE,
  0xBE96833B,  0xBE393102,  0xBE391A1D,  0xBD883890,  0x3EC3D764,  0x3EF528AC,  0x3F37D3CA,  0x3E35D67D,
  0xBD361B26,  0x3E94851B,  0xBCA9656E,  0xBECAD617,  0xBDB2070E,  0xBE60398D,  0xBEA034D7,  0x3F841F67,
  0x3F72A5B5,  0x3FFC56D6,  0xBF32095F,  0x3F85D643,  0x3EF81119,  0xBE3719A6,  0xBF95483F,  0x3F8FD5B1,
  0xBF7D3D3F,  0xBFD6A2A2,  0x3E7B9238,  0xBF275044,  0x3F21238B,  0x3F34A03C,  0x3F4E84F4,  0xBDFBA56E,
  0xBED0212B,  0xBDBA30AE,  0xBE4F7647,  0xBE73BD26,  0xBFBC3C3B,  0xBF9686A7,  0xBE955790,  0xBF48F865,
  0xBF09751A,  0xBE5016C1,  0xBEBA95F2,  0x3F1F9B4C,  0xBF73F5A8,  0x3D9F0472,  0xBEA18EEF,  0x3E7ED6E7,
  0x3DC482A0,  0xBF056598,  0x3EDE78E7,  0x3E0460A2,  0xBD801AB3,  0x3D21B877,  0x3EE708EC,  0x3EABDA9B,
  0xBE006B84,  0xBF89DB27,  0xBE98169B,  0x3ED90843,  0x3D5663CC,  0x3ED4978D,  0xBF91AB82,  0x3EFF00FA,
  0x3F22514E,  0x3F28EB65,  0xBE0A0B52,  0x3E404E30,  0x3FA8DA85,  0x3ED71AEE,  0xBE2E98C2,  0xBF1324A5,
  0xBE205C22,  0x3F03CD54,  0x3E8FB040,  0xBE7D3423,  0xBEBA18F8,  0x3E91E160,  0xBC9DEB77,  0xBF1EE081,
  0xBEAE546C,  0xBFBA6DBD,  0xBF07A4BD,  0x3EAA4BEA,  0x3ED3E90F,  0xBF1E3176,  0x3B48601A,  0x3E1A80D2,
  0xBDD9C767,  0x3F94B22B,  0x3F84F07B,  0x3F08EBD4,  0xBE88B33E,  0xBC9EEAEE,  0xC0025C2B,  0x3E50D52B,
  0x3F5FFF4C,  0x3EF2438A,  0xBD2580F2,  0xBE3FD6E8,  0x3F403410,  0x3F268D22,  0xBF867E5E,  0xBE8DB7EB,
  0x3E9788E7,  0x3F1E4DB4,  0xBE8D725B,  0x3F0EF01C,  0x3EFB1339,  0xBE3955B2,  0x3ED67B19,  0xBE56CC87,
  0xBE6F2757,  0xBEE2BDAE,  0x3F0CF69D,  0xBEBE1363,  0xBDA6E4AA,  0xBE9FF5D5,  0x3ECC59BA,  0xBF70E8A7,
  0x3E1EE75A,  0xBEADD5BC,  0xBF5B6771,  0x3F743F56,  0x3D5D84D0,  0x3F02C366,  0x3F46AEFD,  0xBFA5B92D,
  0x3CD9F9A7,  0xBF827C9B,  0x3E8E2DCC,  0x3DB19325,  0xBFD896A3,  0x3EAC7D23,  0xBF2745B3,  0x3EA58D0F,
  0x3F741DD7,  0xBF498D9A,  0x3E9EC3A3,  0xBD8C0172,  0xBE4ED5D2,  0x3F08951C,  0xBE1E2957,  0x3DA34416,
  0xBF223833,  0xBF399440,  0x3D577A1C,  0x3ED05A51,  0xBDC87125,  0x3E927819,  0x3E4E4F6F,  0x3E7571EA,
  0x3F56365B,  0x3FC27DFD,  0xBEB0B165,  0x3F5718A1,  0xBEB93A5C,  0xBF46749D,  0xBF93F825,  0x3C0B490D,
  0x3C6D0DAC,  0xBF0596BF,  0xBDA2EEE1,  0x3E109936,  0x3E158B52,  0xBD5ACA34,  0x3F0C5026,  0x3E94237B,
  0x3F6C7366,  0xBDA6F760,  0x3F1500BE,  0xBDAF97ED,  0x3E850387,  0xBE4BCF8E,  0xBE64B1EE,  0xBF077088,
  0x3EB63BB1,  0xBE096DBF,  0x3ED5C5DE,  0xBF1F7BBD,  0xBE6FBD24,  0x3DA3B69E,  0x3E22CDFC,  0xBF345233,
  0x3F899E7E,  0x3FAE2735,  0xBBB1BEDA,  0xC030993D,  0x3E93262C,  0x3DD2393A,  0x3F123DE7,  0xBF4E82A2,
  0xBF81F439,  0xBD9A8210,  0x3DFFB11F,  0x3E3B44B8,  0xBD6F268F,  0xBEF974CD,  0x3DB9D33D,  0x3EAC9949,
  0x3F07243B,  0xBEFFE9BD,  0x3EDD5186,  0x3C7DDDC3,  0x3E8A7C1C,  0x3E053A24,  0x3E70E9ED,  0x3DE54A91,
  0x3F3057E8,  0x3FDF44A6,  0xBF3793AF,  0xBE5F2969,  0xBF2C049D,  0xBEE21459,  0xBEADC0F4,  0x3E4EC257,
  0x3D791D9E,  0x3DF9253F,  0xBF1C1ED7,  0x3F8A68DB,  0xBF596C70,  0xBF02C735,  0x3F7BF371,  0x3F01F397,
  0x3E9A182C,  0x3E8DEBF0,  0xBD9D7382,  0xBD8BA1A9,  0x3E52D14B,  0xBE387DD5,  0xBF0CF803,  0xBF0680FF,
  0xBF3D5FE1,  0xBE99027D,  0x3E9BD42B,  0xBFA2EEF2,  0xBEA2526B,  0xBE6361F2,  0xBF8ED93B,  0xBEF9B19A,
  0xBF93A3B5,  0xBEB19B48,  0xBDC84857,  0x3F24E213,  0xBC34AB4C,  0x3F0C1018,  0xBDBB56B0,  0x3F38F54D,
  0xBE526DBB,  0xBE0CD2E4,  0x3F272310,  0xBF387F14,  0xBEFC2276,  0xBF875A53,  0xBEB5BA88,  0x3E7DD399,
  0x3F191B21,  0xBE0495A3,  0xBCB2501D,  0x3E9DACDA,  0x3E43BC56,  0x3E1B940D,  0x3F88693F,  0x3F5B949C,
  0x3ECFB5F5,  0x3E870E9C,  0xBE6BA5BB,  0x3C514E61,  0x3F1C1C3C,  0xBE0EF44F,  0x3F90BB40,  0xBDE92DA7,
  0x3E260FC4,  0xBE6826A8,  0x3EC1F129,  0xBEB8E69B,  0x3E7D2754,  0x3E8738B0,  0x3E0DD2AA,  0xBDF382CE,
  0xBF4685C3,  0xBFA45A28,  0x3F1C6A43,  0x3F08028D,  0x3EA0DED6,  0xBA699325,  0x3F44B221,  0x3F008988,
  0xBF5A8E51,  0x3F12F88D,  0x3E80D7F0,  0xBEB2DD4B,  0x3D8DEB4B,  0xBDFCC6A1,  0x3EE09369,  0x3D3D5588,
  0xBFC9F676,  0x3E7D450D,  0xBF842DD7,  0x3F6152BE,  0x3EB2CD8C,  0xBBFEB2B2,  0x3E53C2D2,  0x3EE43635,

};

const uint32_t BIAS_CLS_BITS[10] = 
{
  0xBFF7C3D5,  0x40481F56,  0x3FCA9B96,  0xBF80117A,  0x3FA3B604,  0xBFC64EFB,  0xBF2604B1,  0x3F1A18C7,
  0xBF297BB4,  0xBF4B6797,
};

#endif // WEIGHTS_H
