#ifndef WEIGHTS_H
#define WEIGHTS_H

#include <stdint.h>

#define C1 8
#define C2 16
#define C3 32
#define NUM_CLASSES 10

const uint32_t WEIGHTS_CONV1_BITS[72] = 
{
  0x3FC3347C,  0x3FA9F277,  0xBEE72D26,  0x404D8C08,  0x4040D353,  0x40495686,  0xBE0E485C,  0xBF1BEAF9,
  0x3E55E0A2,  0xBEE4AADF,  0xBF8899B9,  0xBFEF327A,  0xBF6D63D3,  0xBF3BF652,  0xBFD7AF88,  0xBFE39095,
  0xBFA02A8B,  0xBF05ABDC,  0xBE03E35D,  0xBF8F5515,  0xBF979CBD,  0x4016D2B0,  0x401D102C,  0x3FB36533,
  0xBFB3FB0A,  0xBF8C2708,  0xBF04DE5F,  0x3EE5FBCC,  0x3EFC4E63,  0x3E46810E,  0x3EAE900B,  0x3E108D5B,
  0x3E88264D,  0xBECCCF35,  0xBEC0AD69,  0xBD5EE511,  0x3E6927B9,  0x3ED8EF4F,  0x3D3DA137,  0xBEE13AF9,
  0xBEB8DA67,  0x3DA95ADE,  0x3E71E06C,  0x3CB02E46,  0xBDBD3A88,  0x3F84FB4C,  0x3FA4F766,  0x3F496C10,
  0x3F8DB4F0,  0x3F326AD1,  0x3F674BC5,  0xBF9771EC,  0xBFB3C874,  0xBE98D8D6,  0x3FEDEF54,  0x3FBAFD7A,
  0xC031DE3B,  0x4096C25F,  0xBF913FF7,  0xBFA7BC67,  0x406AB68F,  0xC0712A7A,  0x3E63748C,  0xBDBF45A9,
  0xBE87707D,  0xBED77C36,  0x3E836A13,  0x3E6D899E,  0x3E8B6AC3,  0x3E1AE762,  0x3E3E88FE,  0x3CD1A0EA,

};

const uint32_t BIAS_CONV1_BITS[8] = 
{
  0xBD8B2684,  0x3FDE30C2,  0x3A8D611B,  0x3BE6BAC2,  0xBA916228,  0x3DBACACD,  0xBF27BA5D,  0xBCAE30E6,

};

const uint32_t WEIGHTS_CONV2_BITS[1152] = 
{
  0xBC9B39D2,  0xBF906338,  0xBF9E13E5,  0x3E83321C,  0xBF5EF21A,  0xBFB7BB89,  0x3F9F9A4B,  0x3F4FFAD1,
  0x3EFBFB43,  0x3F275FFB,  0x3F1029E3,  0x3F41AA61,  0xBE035222,  0xBD1DDCE4,  0x3D6497D2,  0xBF19CDCF,
  0xBF50AD01,  0xBF1A4F3E,  0xBDA4FFD7,  0xBE540670,  0xBE4B41DC,  0x3D6669B8,  0xBC703D8A,  0xBDEBBE54,
  0x3CCBD75B,  0x3E67CE34,  0x3E8D72CE,  0xBD422817,  0xBE00E12F,  0xBD471C8A,  0x3D21BA56,  0xBE18C9D9,
  0xBDC9A53D,  0x3D681A54,  0xBCDD308C,  0xBBDF6B07,  0xBC9C51FB,  0x3CD2A5C1,  0xBC98BFD1,  0xBC93C904,
  0x3C6D2768,  0xBCA5F919,  0xBD611653,  0xBB22641F,  0xBCE4D297,  0x3D1F4ED7,  0xBE466667,  0xBE281668,
  0x3D436C63,  0xBEBAAEE9,  0xBEA5F6E2,  0x3DB24921,  0xBC4DE989,  0xBD81D8CF,  0x3F5382B0,  0x3EAD0566,
  0xBEE1D924,  0x3F17FF23,  0x3ED4AA64,  0xBEE8AD3A,  0x3EF8A17D,  0x3F59F44C,  0xBEC4C2EA,  0xBC916DC6,
  0xBD29DD8F,  0xBDFDD746,  0x3D2F7145,  0xBD40CEBE,  0xBDECD1A0,  0x3D5D9991,  0x3DF7AE16,  0x3DC91879,
  0x3E1DC5F0,  0x3D67C36E,  0x3E8774EA,  0x3EA386B1,  0xBCA5A365,  0x3E334624,  0x3EC576C8,  0x3E86C659,
  0x3F6F3BFA,  0xBEF2A4E6,  0xBEDB24CF,  0xBEBB28C6,  0xBE380CD6,  0xBCBD5D10,  0xBD9E5160,  0xBEA5A8A2,
  0xBEC376A2,  0xBEFA4120,  0x3CAAC201,  0x3E0F06B0,  0x3E29DB99,  0xBA16C06D,  0x3E06C4DC,  0x3D970B3B,
  0x3EBC765F,  0x3EE03077,  0x3ED5A632,  0xBC428DED,  0x3D835C29,  0x3DEF3DD2,  0x3CF9BD9B,  0x3D1B5357,
  0xBCF3E673,  0x3D58CE86,  0x3CC99AB5,  0x3D25E309,  0x3CDBFB6B,  0x3B9D51B3,  0x3D388E1B,  0xBCDFDC5E,
  0x3D840304,  0xBC95E12A,  0x3D6E57FC,  0xBC2CA49E,  0x3D3FFAF5,  0xBCD6023E,  0x3D82CF2D,  0x3E51D900,
  0x3D5FA3CA,  0x3D2A21D9,  0xBD90AC60,  0x3E8A53A2,  0x3E2A1D07,  0x3E5E99E6,  0x3D783D36,  0xBE4E54C0,
  0xBEECB2BE,  0x3DFA82D6,  0xBEB0F9BF,  0xBF3F3D13,  0xBDAEBB9A,  0xBF250F07,  0xBF5CBDED,  0x3D87144A,
  0x3C841440,  0x3B705218,  0x3B2267BA,  0xBAC027D2,  0x3D2F41EE,  0xBB0922FA,  0x3D42FD4B,  0x3CE84B9B,
  0xBEA2B00B,  0xBEE781C9,  0xBEC32108,  0xBEF639D6,  0xBEB12164,  0xBC2403CD,  0x3E2FFF28,  0x3F282817,
  0x3F9B9D41,  0x3EE70A5E,  0x3E18297C,  0x3E6CC420,  0x3EB512B9,  0x3E1BDA95,  0x3E953AFC,  0xBD0AC9CC,
  0xBEBE0973,  0xBEA59A9B,  0xBD1EE950,  0xBD445C99,  0xBE2AE919,  0xBE6E8D6E,  0xBE82DDAE,  0xBE0D5202,
  0xBDEC535B,  0xBBAF8BBD,  0x3D9730BA,  0xBDC63E9F,  0xBC723DA7,  0xBCEBA6BC,  0xBB6BA182,  0xBD8B5A6C,
  0xBCCA6802,  0xBDC1A1C4,  0xBD837A80,  0x3B8AAF47,  0xBC9CFD47,  0xBC8B933F,  0x3ACD6930,  0xBD53C6C5,
  0xBD842C83,  0xBDA66D30,  0xBB1A4F75,  0xBB8146D2,  0x3A1EEA7E,  0xBE440B3F,  0xBE380C19,  0xBE450E21,
  0xBDE33CC8,  0xBE51D6B3,  0xBE1A6378,  0xBE97E17A,  0xBE3D615C,  0x3D4047B1,  0xBD406983,  0xBDDC7352,
  0xBD43E160,  0xBE51C216,  0xBE3D7123,  0xBDC251DB,  0xBE42A08C,  0x3DC06139,  0x3F19F541,  0x3C12B4FB,
  0xBD2E4904,  0x3BE7B63A,  0xBD5AFE7C,  0xBCB43602,  0x3CF99980,  0x3D433104,  0x3D64491E,  0x3E09D2D8,
  0x3E164E81,  0xBE33A4B7,  0x3D950DE8,  0x3FBD7831,  0x3F6F6039,  0x3EE69888,  0xBEA19DF5,  0xBE0C7CDA,
  0x3E994364,  0xBE82FCAF,  0xBEA3642A,  0xBF1DD589,  0xBEB3D9AC,  0x3B93FEEA,  0xBE9BCBCD,  0xBE94BF86,
  0xBE054CD7,  0xBEC8C428,  0x3E938DF6,  0x3F13F204,  0x3F11CD4E,  0x3F1E78F8,  0x3F360292,  0x3E9DB19C,
  0x3F0CEE6E,  0x3F082999,  0x3E059A29,  0xBE6FCA88,  0xBE48C35F,  0x3B5C81EB,  0x3E671010,  0x3E4A17CD,
  0x3E07E23D,  0x3DF17698,  0x3D0BD336,  0x3A9D4F3A,  0xBDF5C685,  0x3CC8757A,  0x3D33B3B4,  0x3D8A5F04,
  0x3D89EA90,  0x3DE5DA83,  0x3E336810,  0x3E2A7D0D,  0x3D7BAB96,  0xBEE17871,  0xBE8B0B76,  0xBC4D475D,
  0x3F4882C8,  0x3F0A970E,  0x3E8C5A2F,  0x3EE239E0,  0x3DF2D56E,  0xBD2A1D74,  0xBF04E466,  0xBF55CE22,
  0xBF452747,  0xBF4BB922,  0xBF9F39FF,  0xBF89606B,  0xBF95F27C,  0xBFD2F366,  0xBF927983,  0x3DF9508D,
  0x3DBCFA2F,  0x3D60DD8A,  0x3CEEED16,  0x3D78249B,  0x3CD1C8A2,  0xBD329ED8,  0x3AA90779,  0x3D091E4E,
  0x3FB61A0B,  0x3FA5E5BA,  0x4019B4E4,  0xBF315349,  0xBF4FF33F,  0xBEDF2158,  0xBFE3F8C3,  0xBF97B1D4,
  0xBFB20D1C,  0x3D2C898E,  0xBE576642,  0xBE8D8853,  0x3D8362E2,  0xBEA70105,  0xBE36D313,  0x3E207E50,
  0xBE0CF6B8,  0x3E3EA547,  0x3EA45C81,  0x3E3BCC09,  0x3EB05C20,  0x3E9C4C8E,  0x3E023879,  0x38D03F87,
  0x3E494B37,  0x3C33B888,  0x3B97396E,  0x3E486A77,  0x3E6C015C,  0x3E9754D0,  0x3D9CBA98,  0x3D049019,
  0x3DD3ED4B,  0xBE77D0BF,  0xBE7E9A94,  0xBE8618DD,  0xBD758AC5,  0x3CA56FED,  0x3B152D14,  0x3CAB1FFF,
  0x3CC25DB1,  0x3CF38E3F,  0x3DE4909F,  0x3D15341F,  0x3D615F48,  0x3F3B788D,  0x3F3B9F73,  0x3F62C34F,
  0x3E380AE1,  0x3D5AF47A,  0x3E9BA880,  0xBF462485,  0xBF4C3D5B,  0xBF5DB586,  0x3FB1F449,  0x3F09EEA4,
  0x3EC14147,  0x3DEF6A24,  0xBECF0D2B,  0xBDD64464,  0xBF85A972,  0xBF184598,  0x3DEAB244,  0x3D93FA6C,
  0xBD0B8D9C,  0x3DFA3020,  0xBAB8059A,  0xBDF2B865,  0xBE20150E,  0x3D7644FA,  0x3DF2E6C8,  0x3CFCD1FB,
  0x3EF98C8F,  0xBD0D00B7,  0xBD5084C5,  0x3FABAC7C,  0x3F0536F7,  0xBED6D53B,  0x3F8619D5,  0x3F0A6913,
  0xBF1443D5,  0xBEAB362A,  0xBEBB366F,  0xBEE217DE,  0xBE658ED1,  0xBE7BE6CF,  0xBD0EC070,  0xBEC38B9C,
  0xBEC975B4,  0xBE4070FE,  0x3E5ACAF3,  0x3E829AC7,  0x3E92D2F5,  0x3EF2412B,  0x3F0C48DA,  0x3DDD134A,
  0x3F1DD497,  0x3F00E6A0,  0x3D8E5257,  0xBBAA36EA,  0xBCB44C4E,  0x3DB44E84,  0x3E2D3A9A,  0x3DBF819C,
  0x3D2F6798,  0x3DFCD893,  0x3DCB5343,  0xBD7D4F68,  0xBD2EF258,  0x3D859848,  0x3D97678E,  0x3DD69F9A,
  0x3DD630AC,  0x3D0261E9,  0x3DEF2F8A,  0x3DE1055D,  0xBBF9A100,  0x3DAEC255,  0x3E5D9C7C,  0x3EA22CEC,
  0x3F051C41,  0x3E9877E3,  0xBDC27928,  0x3EC1C695,  0x3DF5E78A,  0xBE75DC7F,  0xBF024A60,  0xBF92AE16,
  0xBF2F45D0,  0xBF2DD79A,  0xBF6F4E01,  0xBF73342B,  0xBF2BD54E,  0xBF000022,  0xBF098C68,  0x3DE2135F,
  0x3BADD398,  0xBC1625D0,  0x3D78922C,  0x3D86A99B,  0x3938858A,  0x3D113B83,  0xBCC5514C,  0xBD44831C,
  0xBD1820A8,  0x3CC19D20,  0xBD0C609F,  0x3C9B9635,  0xBCAC19EE,  0xBC1F30F5,  0x3C95B435,  0xBD0F312E,
  0xBBFE39BE,  0xBD27BABD,  0xBB9651ED,  0xBB6B7AA9,  0x3CC0943A,  0xBCFB1FD7,  0xBBF94B9C,  0x3BF33358,
  0x3D221AE9,  0xBB8DB25B,  0xBC5A6EBC,  0xBBC2EB22,  0xBD10A31B,  0x3CF89056,  0xBC1472D2,  0xBD344641,
  0xBD051741,  0xBD10B9A5,  0x3C148758,  0x3C6DCC18,  0xBC386E5C,  0x3D37DAB8,  0x3CC6F600,  0x3C92FD3C,
  0x3C8FF625,  0xBCAB0998,  0xBC533458,  0x3B5F11EA,  0x3B236B3C,  0xBD0ACE6A,  0xBC619B91,  0xBD396A73,
  0xBB0DDF40,  0x3D1E9950,  0x3CD0A213,  0xBCAD4722,  0xB9C7C710,  0xBCC03056,  0xBCA72ECA,  0x3C17B0CD,
  0xBA21B07E,  0x3CE60E9B,  0xBCB31C54,  0x3C38861A,  0xBBBE9A4E,  0x3CE5DAEE,  0xBD3380C2,  0xBCCE8B8C,
  0x3D16CF62,  0xBC8027B8,  0xBC13E0DF,  0xBD0296EE,  0xBCA5DB80,  0x3C632415,  0xBCF7941F,  0xBD0348AE,
  0xBC699F14,  0x3D11A957,  0xBC531751,  0x3C5E0203,  0x3D3489A5,  0x3C5AE24C,  0xBC095864,  0xBBDABDAA,
  0x3F7480DE,  0x3F05CB85,  0xBDBB172C,  0x3FC971C1,  0x3F1AC3B6,  0xBF8B86E1,  0x3FD95BBB,  0x3F47B811,
  0xBFBD80D5,  0xBF1512AA,  0xBEAD2072,  0xBF050BE1,  0xBEB48FFF,  0xBE94826D,  0xBDE11380,  0xBEB1543C,
  0xBE65A553,  0x3E696376,  0x3D8529FD,  0x3E83E26C,  0x3D39C5FB,  0x3ED29407,  0x3EB95157,  0x3BA4492C,
  0x3EE3AB69,  0x3E8C842B,  0xBDDCEC8F,  0x3DB31D1F,  0x3E3D76D5,  0x3E46F893,  0x3E1D51C8,  0x3E092732,
  0xBDA6979B,  0x3E138402,  0x3D984E8B,  0xBE091131,  0x3A8236EB,  0x3E052065,  0x3E34E39D,  0x3E1282C8,
  0x3E3BEDD9,  0x3D9C21B9,  0x3DD73C6F,  0x3E1C4199,  0x3D01E56E,  0x3E9AC88D,  0x3F14A58C,  0x3F0F5DD2,
  0x3F0F8E60,  0x3EBAE6ED,  0xBDFB51CF,  0x3EB7065B,  0x3DCC573D,  0xBE9542E2,  0xBF8A4DA6,  0xC0013B82,
  0xBFA158C1,  0xBFA57DA4,  0xBFAA787C,  0xBF56D5EC,  0xBF8B41EA,  0xBEC81A64,  0x3F0A2A97,  0x3DCB4118,
  0x3BE90144,  0xBBA894CC,  0x3DBE2FEA,  0x3D17B4E0,  0xBD9BAE48,  0x3D88FD7E,  0x3C92C214,  0xBD944BB9,
  0xBF09DF06,  0xBFB05C5E,  0xBFA659D1,  0xBE410422,  0xBF84DAC8,  0xBFB58CDA,  0x3F9DD414,  0x3F5775E0,
  0x3F55E429,  0x3F37C1AA,  0x3EFA420A,  0x3F74AF24,  0xBDD85855,  0xBE269634,  0x3E409E4C,  0xBF49A7A4,
  0xBF68B615,  0xBF3588F4,  0xBCA8A67E,  0xBE12BD60,  0xBD8C645A,  0x3C567C49,  0xBD3F7B49,  0xBE2B0C35,
  0xBD9BE88D,  0x3DFC7427,  0x3E8ABCFA,  0xBD99A15B,  0xBE2D91F7,  0xBDFE5DE0,  0x3C0F8F21,  0xBDC73CB6,
  0xBDA192C4,  0xBC018D7D,  0xBD519345,  0xBDAAFD48,  0xBDA98585,  0xBDAA8061,  0xB9ECFB92,  0x3D0D8232,
  0x3D47B9F1,  0xBCAAFF4F,  0xBDB44171,  0xBD3D7EE7,  0xBD97A39F,  0xBE1D6BDB,  0xBEB64388,  0xBE846F4C,
  0xBD672822,  0xBE95FDDF,  0xBE8726A4,  0xBE39959A,  0xBE49EC02,  0xBE15C079,  0x3F34A87E,  0xBE8EAC36,
  0xBEE2FE81,  0x3ED14E7A,  0xBD7D68BE,  0xBED99F03,  0x3F06B035,  0x3ED223BE,  0xBDBAEBF8,  0xBB98C43B,
  0xBD1FACA5,  0xBE1FF775,  0x3CF6DC39,  0xBAE056C2,  0xBD8091F0,  0x3D94EF79,  0x3DC6DF39,  0x3E21159B,
  0xBDE78EF2,  0xBE26DAF4,  0xBE5892CC,  0xBE6AA0A3,  0xBE6E60CA,  0xBE3C0AF8,  0x3E401CAA,  0x3E95F022,
  0x3EF1A20A,  0x3E2C706F,  0x3D152702,  0x3E131093,  0x3E85E4BA,  0x3DE48EF8,  0x3E32BC4A,  0xBE6EEE16,
  0xBEAE86AE,  0xBE571C54,  0x3CBDFB37,  0xBD039E52,  0xBCB04435,  0xBDC90D0D,  0xBCF74B33,  0xBD3EAE65,
  0xBC9AFDFF,  0x3C96158C,  0x3D015348,  0xBCF26F84,  0x3BEA9FCF,  0xBD0A3BC6,  0x3CE0E19C,  0xBD57F86B,
  0x3C2671DC,  0xBD68E426,  0x3B4778B9,  0x3C0C8DC8,  0xBB325558,  0xBD1CC44A,  0xBD3C23A3,  0xBB97BAD5,
  0x3D2EF42C,  0x3D3FA783,  0xBCC664D2,  0x3D02DEE1,  0xBD533E41,  0x3B37B3F1,  0x3C71F588,  0x3C5FA0FF,
  0xBD04F2D3,  0xBDD9BE30,  0xBDE8C9D4,  0xBE27D1E6,  0xBD33615C,  0x3C4E6314,  0xBC2E5D4A,  0xBDAB5B49,
  0xBD7F2D06,  0xBDA36565,  0xBE258D55,  0xBD2840A9,  0x3D262265,  0x3D72F70D,  0x3EA12D22,  0x3C81284C,
  0xBC91833C,  0xBD8126BA,  0xBD2677BA,  0xBC2B15FB,  0x3C41ECC1,  0x3CCD32DB,  0x3C331677,  0x3DA04547,
  0x3F03D1B2,  0x3EC205FD,  0x3F0880B0,  0xBD269723,  0xBE3E79A8,  0xBE6A4DE9,  0xBED15C43,  0xBEA6049F,
  0xBECC4151,  0x3D699290,  0xBC738AAA,  0xBDF5FB7D,  0xBCBB9E32,  0xBDCACD7D,  0xBE0E9D35,  0xBB34CE43,
  0xBD7ABBD0,  0x3CA18208,  0x3C6E9E58,  0xBCDD32A9,  0x3C61B17C,  0x3DB7A4C0,  0x3CA1B2FB,  0xBD1C605B,
  0xBCED7B6B,  0xBD08B730,  0x3CB3C011,  0x3D7451BE,  0x3B6163EA,  0x3DC445A2,  0x3D0462DD,  0xBD27B427,
  0xBD1E2BFB,  0xBB6611DB,  0xBD1CAA82,  0xBDEFB0E6,  0x3CA06FE2,  0x3D0B372C,  0x3BBB49BA,  0xBCDA6445,
  0x3C82571D,  0xBC817450,  0x3D5BC5EF,  0x3C80246C,  0xBCD5A060,  0x3E2FA46E,  0x3E1B5E60,  0x3E64110B,
  0x3D5D2318,  0x3D4138FF,  0x3DCB88CB,  0xBE669A1E,  0xBE85BE25,  0xBE96128D,  0x3DF56842,  0x3E25F476,
  0xBE063C27,  0xBE779BD1,  0xBE582452,  0xBE7BF0A9,  0xBEDB2377,  0xBE81B711,  0xBDE89C49,  0x3CF23425,
  0x3D6096FA,  0xBC134149,  0xBCA70303,  0xBCDAC661,  0xBC9FB92F,  0xBCC899E8,  0xB84B564C,  0x3D5A4713,
  0xBEDB87F5,  0xBDC7320C,  0x3E96405F,  0xBE83A7D1,  0xBE2566A9,  0x3DFDC36E,  0xBED26256,  0xBE72F07F,
  0x3CDDC910,  0x3F0BB647,  0x3EA82431,  0x3E78879D,  0x3F1AF343,  0x3E703C09,  0x3E7C64EF,  0x3F5EE390,
  0x3F121996,  0x3F13CEDD,  0xBD8F47AC,  0xBDEED589,  0xBE556D3C,  0xBD8FE03D,  0xBDD1445B,  0xBE8B89EF,
  0xBDBFC347,  0xBE5E7C15,  0xBEA9F47E,  0xBDA87D76,  0xBCD5EFF9,  0x3D941D24,  0xBD8EA039,  0xBCD74217,
  0x3CE1D323,  0x3C05247A,  0xBD9691C6,  0xBD2BE155,  0x3CEC33B7,  0x3D11770C,  0xBD4155B3,  0xBD47EE35,
  0xBD42BDFF,  0x3C16CD92,  0x3AACAD2F,  0xBD4965A2,  0x3BF9BACA,  0xBDD1D978,  0x3D8330F0,  0x3CD3A7CD,
  0xBE0425D2,  0xBDA60B2F,  0xBD08ACDB,  0xBE0628D7,  0xBE0D82AC,  0xBCB21160,  0xBD772161,  0xBCAA2BC9,
  0xBD871E23,  0x3D51BFF2,  0x3CD39B90,  0x3ADEFF98,  0xBD93A089,  0xBD568195,  0xBD0831C8,  0xBCC89167,
  0xBD0F7623,  0xBC62C009,  0xBBC469EF,  0xBCE69C5B,  0x3B168BEC,  0xBD08A001,  0x3CF4D859,  0xBC815552,
  0x3CED2B2D,  0xBE04F674,  0xBE5268C5,  0xBE0723DA,  0xBE081C1E,  0xBCD3500D,  0xBE051BC3,  0x3D7A0839,
  0x3E8B63D8,  0x3E22D6C8,  0x3E612162,  0x3EA40BE1,  0x3CD6548D,  0x3C021FFA,  0x3D9EC404,  0x3DCDA094,
  0xBCD8073C,  0x3D00F924,  0x3D46D9FA,  0xBC529137,  0xBCB06A8C,  0xBCD8523D,  0xBCC1BB39,  0xBDD00320,
  0xBD5CF3E1,  0xBCF0F968,  0xBD32B32F,  0xBC10593B,  0xBCCD0CA4,  0xBD544CFE,  0xBCF36CCA,  0xBD19890F,
  0xBD4A46C8,  0xBD8A5793,  0xBD4AB34D,  0xBC05D211,  0x3CE38180,  0x3CE99B86,  0x3CF8351B,  0xBD3E6EDC,
  0x3D25C752,  0x3C9DC80A,  0xBC9AF78B,  0xBD4B1303,  0xBD3B1144,  0x3A951FC0,  0xBDA802A9,  0xBE051ECB,
  0x3C8CEEB0,  0xBD422687,  0xBCDBD13C,  0xBD828B7D,  0xBD666BC3,  0x3CBEB5BC,  0x3D92B401,  0xBCAAD715,
  0x3D81A0B5,  0xBD42A3DC,  0xBD3E4734,  0x3D1DA3B4,  0xBDA203E4,  0x3D2B8F1B,  0x3D4D7830,  0xBCA7C13A,
  0xBD289393,  0xBBD31823,  0xBD412F5A,  0xBD26ADDB,  0xBCF29A0E,  0x3D50E5D5,  0x3D093BDB,  0x3D33D708,
  0x3E84E0AA,  0x3F23F061,  0x3F084990,  0xBE158DA4,  0x3E931B34,  0x3F5A4679,  0xBF0C60CF,  0xBF1DD62E,
  0xBECC900A,  0x3E15D8DC,  0xBD8F9FE2,  0xBDDFBB0F,  0x3B41AE69,  0xBD8151EC,  0xBD7322A8,  0x3E458ABD,
  0x3DA855AD,  0x3D7A195C,  0x3E635128,  0x3E6E980A,  0x3EB6A6C3,  0x3DA3DD28,  0x3E4E85B2,  0x3EAADD7F,
  0x3D2F0519,  0xBCC8AD9B,  0xBE201E41,  0x3C98C10B,  0x3D27524E,  0xBC3EB81A,  0x3DA55EEA,  0x3E17D284,
  0x3E2F055D,  0xBDB96C94,  0xBDD7D036,  0xBDD717DB,  0xBD7D0985,  0x3C10A76C,  0xBC89A67C,  0x3CAC7B75,
  0x3D3FDD02,  0x3D513551,  0x3D81E366,  0x3D83FBF3,  0x3DC5DB56,  0x3D525216,  0x3D3345EA,  0xBDD15225,
  0x3E2EFC11,  0x3EC3EBCE,  0x3EE7A4A4,  0xBEE21745,  0xBEECD653,  0xBEC0DF4A,  0xBDFF635F,  0xBDC07850,
  0xBEDBB1EE,  0xBEBB1A4A,  0xBF0FCE59,  0xBF2F7CF1,  0xBEE6D784,  0xBF0D2B2D,  0xBEF74C3A,  0x3C751334,
  0x3DD268CB,  0x3E05E7BD,  0xBD480E95,  0x3D1FDC6F,  0x3C8076ED,  0x3D2D2C71,  0x3CBCE789,  0xBBE00F5A,
  0x3F4AE540,  0x3FAA8702,  0x3F59E8CB,  0xBEB2CCF0,  0x3EC157B0,  0x3EA2F77B,  0x3D823DBE,  0x3EA18E1E,
  0x3E1076D9,  0xBE98D92F,  0xBED3C8BF,  0xBF169111,  0x3EA6DCA9,  0xBE3D3BFF,  0xBF265E36,  0x3E918960,
  0xBEB562F7,  0xBF09A7CC,  0xBF887A35,  0xBF9D64B8,  0xBFA1C957,  0xBFA521CC,  0xBF98C191,  0xBF0F4DE5,
  0xBF0B1566,  0xBEBBCA0D,  0x3E15A0C3,  0x3E27EA89,  0x3E5DDC49,  0x3E04D305,  0xBE044B27,  0xBD56C34B,
  0xBCDEBDB5,  0xBD071B4D,  0x3D509D10,  0x3DFCA6F0,  0x3D3362A8,  0x3C9C01D4,  0xBD89477F,  0xBDAEABF1,
  0xBDACFCE6,  0xBDA4AA43,  0xBDD6E393,  0x3BA9272D,  0x3C4EDEE5,  0x3EE88B23,  0x3F0C16EF,  0x3EDE14E5,
  0xBEEB7191,  0xBE0E0F5E,  0xBE22308D,  0x3B9C31DC,  0x3EACC45F,  0x3EC15CEE,  0x3E96B8D8,  0x3F650CA4,
  0x3F9822AF,  0x3F127435,  0x3F78F853,  0x3F6820E0,  0x3EDBBF2B,  0x3F0D21C5,  0x3DE0FDBE,  0xBE16DA2D,
  0xBDE8987F,  0xBDD3EE11,  0xBE4C5776,  0xBE2396B4,  0xBC83179B,  0xBE09DDAE,  0xBDA9BB8D,  0x3D62CB49,
  0x3EA49179,  0x3E2BC97C,  0xBF384B58,  0x3F763A9F,  0x3EA6D221,  0xBF838C0A,  0x3F80B17E,  0x3E82EC23,
  0xBF9248D1,  0xBE88FB39,  0xBE8FF83F,  0xBEAD5073,  0xBE5A16B2,  0xBE3B9FD0,  0xBDB4139C,  0xBDAB7149,
  0xBD32B225,  0x3E1EA277,  0x3E0F2EBD,  0x3DF65AF5,  0x3CF273F9,  0x3E719289,  0x3DEA5700,  0xBD50DE16,
  0x3E15B702,  0x3B362101,  0xBE300FBF,  0xBD7F022A,  0x3D930953,  0xBD1409ED,  0x3D822E5F,  0x3D74070F,
  0xBDD00B24,  0x3DD3A846,  0x3DCEABE5,  0xBDC12396,  0xBC817DE0,  0x3D88560F,  0x3D8D35FB,  0x3DAE54DE,
  0x3D6AC391,  0x3D162602,  0x3D90B81F,  0x3D653BDC,  0xBCA0071B,  0x3D468389,  0x3E0F1F76,  0xBDA146EA,
  0x3E9B297D,  0x3E0F1CDE,  0xBE8AD7D4,  0x3EA3C081,  0x3E1C4615,  0xBE91DF4D,  0xBEE5DAEF,  0xBF6FDD2B,
  0xBEE80571,  0xBF34A791,  0xBEE786EE,  0x3E087F54,  0xBF093BB3,  0x3DB5DF24,  0x3F3F9A26,  0x3D598670,
  0x3D8D5852,  0xBA5AECBB,  0x3CD6A7F7,  0xBC14530D,  0xBCB9D08B,  0x3D2EC1D8,  0xBD34EB88,  0xBBECF0EE,

};

const uint32_t BIAS_CONV2_BITS[16] = 
{
  0xBEC381B3,  0x3DE58B64,  0x3CAD2FFB,  0x3F887401,  0xBF0A3377,  0x3F5868A7,  0xBC5167CF,  0x3F8830FA,
  0xBEB2C5AA,  0x3DFEEAD9,  0xBE4FEA4F,  0xBDD5429A,  0xBDB0A42C,  0x3EC1AB61,  0xBF1C9414,  0x3F00642A,

};

const uint32_t WEIGHTS_CONV3_BITS[4608] = 
{
  0xBDB04301,  0xBEA40877,  0xBEB4BC4D,  0xBE93B068,  0xBEA55623,  0xBEA82BB8,  0xBDE5CCF1,  0xBD67ACC7,
  0xBD6B8055,  0xBE380AF9,  0xBC02D6A8,  0x3D46CACF,  0xBCACCADD,  0x3D72DB8D,  0x3E244BEA,  0xBE14B63A,
  0x3DC19616,  0x3E0E6548,  0x3E12F9DC,  0x3DF3EFA2,  0x3D2E7C86,  0xBC0D333F,  0xBDA1C9C2,  0xBDAB2629,
  0xBD348498,  0xBDCA1533,  0xBCC0AD48,  0xBE73809E,  0xBDCB7CAA,  0x3D91B81A,  0x3DFFEF5B,  0x3D952910,
  0x3E4340FE,  0x3E28BB4A,  0x3EA8FF03,  0x3EC5DAE1,  0xBEF201AE,  0xBE940FB9,  0xBD9D8B99,  0xBED53731,
  0xBEA295B8,  0xBE25221F,  0xBE15E9CA,  0xBF01773B,  0xBF348D61,  0x3CE252F1,  0xBDB9AA8C,  0xBD518C15,
  0x3DF3380E,  0x3D997F8E,  0x3D027F08,  0xBCD99ADD,  0x3DE1C2E2,  0x3E2A9AF1,  0x3CEE9C88,  0x3D24636A,
  0x3C8E5D20,  0x3B3D8A79,  0xBCE28951,  0x3D300817,  0x3D38FAF5,  0x3CF4073A,  0x3D252B4D,  0x3DEB9A26,
  0x3D0E29F6,  0xBDB246DA,  0x3E67DC19,  0x3E3BF338,  0x3D85FD05,  0x3CD62538,  0x3E360FF1,  0x3E3D1C17,
  0xBDC7F5CA,  0xBE87618B,  0xBE88A0C1,  0xBE9C36BB,  0xBEC5B34B,  0xBEB2FFB0,  0xBE555B44,  0xBDC69024,
  0xBD45D865,  0x3CB1571A,  0xBCBD88DC,  0x3D27BF7D,  0xBDD4A3B5,  0xBDC27DE5,  0xBDA2B2EC,  0xBD90E9C1,
  0xBCAB1521,  0xBD41ED29,  0xBE0FE7F3,  0xBD8470BF,  0xBD576F81,  0xBDCE039F,  0xBE01D3F2,  0xBD8A7453,
  0xBD921FAC,  0xBDCC214C,  0xBE12137D,  0x3E754210,  0x3DA07595,  0xBD119AD7,  0x3E0CFE3D,  0xBD02C89F,
  0xBC84E457,  0x3E0AAFD4,  0xBCE8B9A5,  0xBCAAC696,  0x3DDB25B1,  0x3D7AE59C,  0x3A6DC351,  0xBD1CDF32,
  0xBCE8D8DF,  0x3CDB6D0D,  0xBD76E328,  0xBC573EA1,  0x3CE5B3D1,  0xBE995434,  0xBE462784,  0xBE1058D4,
  0xBE311255,  0xBE012544,  0xBDCB3021,  0x3E5F5A8C,  0x3CC0A28C,  0xBDE2B9BC,  0xBD8E316E,  0xBD46F35E,
  0xBD0F13C8,  0x3E940771,  0x3E29B716,  0x3DF71B6A,  0x3E591B59,  0x3D5DD672,  0xBCEB2C66,  0x3E007984,
  0x3DA10EBB,  0xBD83111F,  0x3E594A90,  0x3E1F0E9C,  0x3DA81615,  0x3E4CA32F,  0x3E3B47A0,  0x3E23EC75,
  0x38652C57,  0xBC27D9B8,  0x3D40BC5D,  0x3C20DDC1,  0xBC92D413,  0xBD0B98EB,  0xBD1C6DBF,  0xBD3DD4FF,
  0x3C87B68B,  0xBD2FBF68,  0x3D2B63B0,  0xBD478CCC,  0x3D08D542,  0xBD17F3A0,  0x3BFE5685,  0x3D29623F,
  0xBD1EAFBA,  0xBD190763,  0xBC9C6689,  0x3D1014A0,  0xBBEED8F0,  0x3D37F502,  0xBD2A2A76,  0x3CDA026C,
  0xBCB066A0,  0xBC986FD4,  0xBADF4524,  0xBD0AD9FC,  0x3CCC6FF5,  0x3C761A06,  0xBC8C5488,  0xBD03CDF9,
  0xBD15404F,  0xBC1DF362,  0x3D333198,  0xBCF8F5BB,  0xBD2BFB88,  0x3CD59377,  0xBD0BD58E,  0xBCF78DB3,
  0x3CF27A48,  0xBD104BEE,  0xBC32893F,  0xBCDDB3DE,  0x3C6B76AB,  0x3CB97A89,  0x3B7FC3DC,  0xBCDCFEE8,
  0xBCD7FF05,  0x3D142912,  0x3D2DD01C,  0x3CF70F92,  0xBCD90D93,  0xBD047008,  0x3C530154,  0x3CD18B43,
  0xBD37888F,  0x3C5EDDF2,  0xBD309A03,  0x3AEFD40C,  0xBCBB5EF1,  0x3C259781,  0x3BE93BC2,  0x3C1AA23C,
  0xBC49BDC6,  0x3CA17819,  0xBC98DFB7,  0x3D2606EC,  0xBD309B17,  0xBCE89545,  0xBCAE4E8B,  0xBC574630,
  0xBD26D910,  0x3D1804A1,  0xBC441520,  0x3D1679A3,  0x3C4355F9,  0x3B2F68C9,  0xBCA17786,  0xBC2F64CE,
  0xBD2DF943,  0xBD152305,  0xBB69859D,  0x3D278FC0,  0x3D13C141,  0xBC624C43,  0xBC880F66,  0x3CAF1538,
  0xBC9E0C00,  0x3D2FEFE3,  0x3CA1EA48,  0x3CCFE84C,  0xBD3BBB71,  0xBD11C496,  0xBCF3E3B0,  0xBD28D750,
  0x3D032F8E,  0x3CA65275,  0xBCCD9DDD,  0x3D004B1F,  0xBB44ECA8,  0x39BD73D3,  0xBD2D6195,  0xBBFAACC9,
  0xBC6A3341,  0xBD242734,  0x3B9874E4,  0x3C8F63DF,  0x3D28197F,  0x3D4BBD7D,  0x3C0609F7,  0x3C153D61,
  0x3D024BB0,  0xBD1EDF2C,  0xBCA61D47,  0x3C92530B,  0x3D2E7983,  0x3CDB5D4F,  0xBCC55FD5,  0x3C5B507E,
  0x3C09589E,  0xBC8FFABC,  0xBCA9DDF7,  0xBD112521,  0xBC7F9BDC,  0xBD0CDB90,  0x3B2C1A80,  0x3C20221C,
  0xBD3CBF5F,  0x3C219BFD,  0xBC1D96A7,  0xBD02A3D6,  0xBD328144,  0xBBC74C65,  0xBC818D17,  0xBCD2D604,
  0xBB434CD4,  0xBBDD385A,  0xBB541391,  0xBD10EF9D,  0x3C8B3DA6,  0x3BA4BF89,  0x3D3942D3,  0x3C9B1819,
  0xBE14E027,  0xBE453CE2,  0x3E04F26C,  0xBDEE68E0,  0xBD6EB8F4,  0x3DFD5693,  0xBDB9C374,  0xBDAFB7BF,
  0x3D7747EF,  0xBD7E2B49,  0x3CCED4E4,  0x3DB90240,  0xBD9D69D4,  0x3D0CF027,  0x3CA785A7,  0xBE1A9B5C,
  0xBD46C12A,  0xBBC01E99,  0xBE11377A,  0xBE3CEF18,  0xBE25F4A4,  0xBD7ED7AC,  0xBD50F6C9,  0xBD93A0B6,
  0x3D683CA0,  0xBB92905C,  0xBDBA071B,  0xBDB34515,  0x3D74FF61,  0x3DE6CDF3,  0xBE203120,  0xB9D6CC58,
  0x3D75066A,  0xBE268725,  0xBE054731,  0x3C2C1CE8,  0xBC13E1DB,  0xBE66F858,  0xBEE18B73,  0x3DCCE71E,
  0xBE311AFA,  0xBEC9EA3E,  0xBC41D0DE,  0x3B440DAF,  0xBD8663A5,  0xBDB252EB,  0xBDDB0E6A,  0x3D883A4F,
  0xBE496389,  0xBE10E222,  0xBCF09055,  0xBE87D096,  0xBE283AC8,  0xBD96AEEA,  0xBC4969AE,  0xBD4192B8,
  0xB7D96995,  0xBC4ED096,  0x3CDE546E,  0x3D0ECFAB,  0xBD341F6F,  0xBD49050C,  0x3CE345B3,  0xBE2BF5DE,
  0xBDB24E6A,  0x3CF61415,  0xBEA62624,  0xBE6D11F0,  0x3CB4446C,  0xBE8AA8AF,  0xBE195F54,  0xBD5249D5,
  0xBDFBCF6C,  0xBE2D4040,  0x3C13465A,  0xBD08AABF,  0xBD8FA094,  0x3D4D5B6F,  0x3C6B664B,  0x3C4C8284,
  0xBC95D8B2,  0xBD3EEC48,  0xBDBCE9F5,  0xBDE9BA7C,  0xBD739771,  0xBD742C43,  0xBD80161D,  0xBCD5904C,
  0xBB185678,  0xBCAB8BA3,  0xBD2BEF8B,  0xBC831BAB,  0xBDC1493A,  0x3BD4F3CC,  0xBD970C74,  0xBCDE7627,
  0x3CCEE60C,  0xBC4260B0,  0xBD38B37E,  0xBD18D93F,  0xBD4AC981,  0xBDA02892,  0x3D2CAC42,  0x3D2A54CC,
  0x3D20544E,  0x3D5844D4,  0xBC17058C,  0xBCC5FB7B,  0xBD9E88F8,  0xBD108656,  0xBDAC9DFF,  0x3CA1C300,
  0x3C7AEFD3,  0x3C4BD08D,  0xBB7F9C1A,  0x3C230E31,  0xBCC020BD,  0x3DD850E8,  0x3D2597D6,  0xBD357D18,
  0x3E110D40,  0x3D1CAB7D,  0x3D33B7D7,  0x3CDEAB08,  0x3DE9C5EC,  0x3E35D0E2,  0x3E1FEFEA,  0x3E9ECEA2,
  0x3E9537AA,  0xBE1EE91C,  0x3D6AE58B,  0x3E949756,  0xBEC8B83D,  0x3C5040B3,  0x3EC62E55,  0xBD3D7A79,
  0xBD0553A3,  0x3C8E6CA1,  0xBDCDA524,  0x3C09F871,  0x3DB421D9,  0xBD439950,  0xBC9475ED,  0x3DBC3068,
  0xBDE5D175,  0x3E3E1930,  0x3CCEC9A8,  0xBE3E7021,  0x3D74255B,  0x3E318B35,  0xBE8E0E63,  0xBD13B762,
  0x3E6486FE,  0xBCCA63CF,  0xBE9495A4,  0xBE36E9CD,  0xBD9687DA,  0xBE8A116B,  0xBE5D3854,  0x3CF75063,
  0xBDF97C57,  0xBE3DAFA9,  0xBDA233D9,  0xBDAEC426,  0xBC56613E,  0xBDC4234E,  0xBD7FB1E2,  0x3D4346BC,
  0xBE1FA2F7,  0xBC1F5E07,  0x3B9E8FBE,  0x3E48EA47,  0xBE5E4F91,  0xBE9E6A56,  0x3E02EE72,  0xBE7C4F9A,
  0xBE76DE2F,  0x3DABF8A1,  0xBE13BF4F,  0xBE23A2BD,  0xBEB1700E,  0xBE4BAD0B,  0x3CC49A7B,  0xBE340E21,
  0xBE5AD6B3,  0x3DFFD575,  0xBEF2C41E,  0xBEAD07EF,  0xBDD64113,  0x3E6ADA60,  0xBB33C9BB,  0xBE964E60,
  0x3E727A15,  0xBCE97A61,  0xBE808191,  0x3E4DA45E,  0x3D049454,  0xBD2C6FD7,  0x3C9654D7,  0x3D05E7D4,
  0xBC96DB3A,  0x3D428982,  0xBD38341A,  0xBCBBF0A9,  0xBD0420C0,  0x3B57A9CA,  0x3CB50350,  0x3EE209D9,
  0x3E726271,  0xBE7C243C,  0x3EB8C279,  0x3E054943,  0xBE85FEA2,  0x3E8CA593,  0x3E024B54,  0x3A737395,
  0xBD49859C,  0x3E3D9EEC,  0x3DEF9B3F,  0xBE010B61,  0x3D85F26F,  0x3E15128C,  0xBE899576,  0xBD4C7271,
  0x3E048129,  0x3AA2ADA3,  0xBD6DAA24,  0x3D550894,  0xBD0250C5,  0x3CD86655,  0xBA526044,  0xBD8064FB,
  0xBD4D1760,  0x3D461FED,  0xBCE968B5,  0xBD1720D2,  0xBD657C72,  0xBBC50C22,  0xBDD21E8E,  0x3C1D7E7D,
  0xBD5BC9B6,  0xBD8F784C,  0xBD94803C,  0xBDF70844,  0xBDBB6F33,  0x3DD2EEBC,  0xBD050534,  0xBD605F05,
  0x3DDF61BE,  0xBD955F0B,  0xBDA77E91,  0x3D5CD197,  0x3BBDAA8B,  0xBB001B46,  0xBB94A144,  0xBD8DC1FA,
  0xBC30BD38,  0xBB902432,  0x3C4D256E,  0xBD878664,  0xBC751853,  0xBD296564,  0xBD547A11,  0xBDD708BA,
  0x3D8AB583,  0xBD9B7B37,  0xBDE3090A,  0xBD8AA416,  0xBDFCAB8B,  0xBDC33B58,  0x3E1101A8,  0x3E91D2F4,
  0x3E9EC807,  0x3D813F25,  0x3C84CB7D,  0xBE923DCD,  0x3D99C99F,  0xBE1A6B28,  0xBF050BE3,  0x3E4CC772,
  0x3E35A69A,  0xBE15AE70,  0x3E1EFCD1,  0x3DEE16D1,  0xBDD54CEB,  0x3E0003B3,  0x3D4E9F0A,  0xBC3C2BBE,
  0xBD8E89DC,  0xBEE17A26,  0xBF006DD7,  0xBECCAECB,  0xBF058B15,  0xBF10C965,  0xBDF9B841,  0xBD4D286B,
  0x3B6305F3,  0xBDB31936,  0xBCFD3281,  0xBD852AA6,  0x3DA4839D,  0x3DCF5E9C,  0x3BA208F1,  0x3D64E7C1,
  0x3D886C7D,  0xBE3D4268,  0x3E59959C,  0x3DFC83D5,  0xBD19AEC7,  0xBCEB8393,  0xBE23E173,  0xBDA70590,
  0xBDE97ECB,  0xBDD78F12,  0x3C515056,  0xBE9F7889,  0xBE7B367A,  0xBE11EB5B,  0x3E9A0F79,  0x3E973647,
  0x3CDD405E,  0x3EF2F684,  0x3F0AF9D4,  0x3EB0E9DC,  0xBF495014,  0xBED1F5E6,  0xBDC3C2B4,  0xBF392C51,
  0xBF054862,  0xBECF24E2,  0xBED989DC,  0xBF5A90E7,  0xBF84CF35,  0xBDB5F250,  0xBCDBCB24,  0x3CD19871,
  0x3E2EC7E6,  0x3E31FBE6,  0x3E2EEB99,  0x3DBD8311,  0x3E9857A1,  0x3E07C1D6,  0xBD36C5B2,  0x3D3603B8,
  0xBC883805,  0xBD3DB3F1,  0xBC83BFFB,  0x3CEF2A1C,  0x3D4BA56C,  0xBD1EC3A4,  0x3CE297DA,  0x3D70C274,
  0x3CDCA341,  0x3DA3D8DD,  0x3E777298,  0x3E48C99F,  0x3E9347B7,  0x3E2A537D,  0x3EADE209,  0x3E951796,
  0xBD22A7F1,  0xBEBAC312,  0xBF0D8C57,  0xBECF51EC,  0xBF0CE577,  0xBF25068E,  0xBE761AB3,  0xBDA19B41,
  0xBDEFCEFD,  0x3CD1CE31,  0xBD2F5C5F,  0xBC02CA6C,  0xBDFE48A3,  0xBDCDB938,  0xBDA2FEAA,  0xBC746FFA,
  0xBD1634B5,  0x3C22F6C2,  0xBE4ADCC6,  0xBDCCC3E6,  0xBDC0020B,  0xBE0916A7,  0xBE2F8B05,  0xBE1846C2,
  0xBE0A8D11,  0xBE210F57,  0xBE90D08B,  0x3E1F3640,  0xBC8A50F8,  0xBCBD20C5,  0x3D719469,  0xBD5647CB,
  0x3D5BD982,  0x3CBB9A0A,  0xBC965470,  0x3DD377F5,  0x3CE57C4A,  0x3C904AB2,  0x3CA4C5FC,  0x3C81995A,
  0x3B9B9CAB,  0x3C0976E4,  0xBA93BC44,  0x3C80D0D3,  0x3CD431F7,  0xBF0B90D9,  0xBED22C95,  0xBE8EAC94,
  0xBEA6A670,  0xBEA82C75,  0xBEAC0F7F,  0x3E4B1CEF,  0x3CFD46FE,  0xBE2C343C,  0x3E12B760,  0x3CBB8033,
  0xBE97157D,  0x3F1AA875,  0x3E8D84B7,  0xBDC34340,  0x3F08AB01,  0xBCE5D0C9,  0xBEBC6D8E,  0x3DA5FA9B,
  0x3D35ED2B,  0x3D57ECB1,  0x3E5F9ADE,  0x3E1B5A28,  0x3E245B24,  0x3E90B855,  0x3E764F35,  0x3E44E826,
  0xBD4FCA18,  0xBD6A854C,  0xBDE8B023,  0xBE1A625C,  0xBE29A9A6,  0xBEA87D1F,  0x3E95256B,  0xBD8B58B2,
  0xBEA7051D,  0x3DBA7437,  0xBDDEB3A5,  0xBE402DF6,  0xBD06F5E0,  0xBE186E5C,  0xBE624C61,  0x3D60AA80,
  0xBBEDB8E2,  0xBC8F280E,  0x3C8EE223,  0xBC82A715,  0xBC901DF1,  0xBB8279F8,  0xBCCF9FA4,  0xBD84E129,
  0xBE5224B3,  0xBDFBE319,  0xBD317E51,  0x3E1B8895,  0x3D483599,  0xBDA8D3C8,  0xBD98C6A0,  0xBD8613D9,
  0xBE4A7DB3,  0x3C91441E,  0xBDB62EFD,  0xBE385142,  0x3C9B3C28,  0x3E71F6CF,  0x3F1465EE,  0x3EA5818A,
  0x3EF80B32,  0x3F23B312,  0x3E90EF32,  0x3E646902,  0x3E11257B,  0x3EE1A8E1,  0x3E0CE68E,  0xBD908CC5,
  0x3E2E70BC,  0x3DE53E7A,  0xBE23F9DF,  0x3DEFB20D,  0x3DE8AFF9,  0xBE06DA07,  0x3D36BB0B,  0x3BEC246E,
  0x3D16DD4C,  0x3D1B3F6C,  0x3CC6C33B,  0xBCEF3939,  0x3BA0170D,  0x3D3FFCAC,  0xBD0BCCDB,  0x3F0B0E24,
  0x3E9BC4E0,  0x3CF8A99D,  0x3EA74AA1,  0x3D5F2E78,  0xBE111592,  0x3824398D,  0x3D34E039,  0xBE2E80E6,
  0x3D0CE8AF,  0xBD517BAC,  0xBE5E17EF,  0xBCD06FED,  0xBE2A59A2,  0xBEA31584,  0x3E05936B,  0x3CA8EF0E,
  0xBE13A4B7,  0x3D5C98F0,  0x3ABF885E,  0xBD5FB43E,  0xBBB4A553,  0x3BFA5753,  0xBBCFF8F1,  0x3C36015A,
  0xBCF084EC,  0x3D3FDB83,  0x3D433967,  0x3DDF3857,  0x3E0511C1,  0x3E10C73E,  0x3DFD0934,  0x3DF71691,
  0x3D8E57E8,  0x3D5BE83F,  0x3D6B59DC,  0xBE564F57,  0xBE5C8629,  0xBE7CD6C9,  0xBE94F5F8,  0xBE758C96,
  0xBE3CD6E0,  0xBEADB765,  0xBE48C972,  0xBE1FB718,  0xBD6940BF,  0xBD848A03,  0xBD6E1959,  0xBB9BE97D,
  0x3BCF54BB,  0xBC54AFA4,  0xBDAC6C36,  0x3A2814CC,  0xBD19D0E3,  0xBDB6A5E0,  0x3D45DE50,  0x3D74DABD,
  0xBDFA22F3,  0xBD21C110,  0xBD7B923C,  0xBDAE2905,  0xBD9CE09C,  0xBDABC200,  0xBEFCAAB1,  0xBE9331E7,
  0xBE14BB0E,  0x3E5D141E,  0xBDDDF24A,  0xBEEDDBAB,  0x3DBEF2A2,  0xBEE1D618,  0xBF4A5665,  0x3E82AD4B,
  0x3E1704F6,  0xBC193841,  0x3E127589,  0x3D9ED663,  0xBD403000,  0x3CB23070,  0x3CF004BA,  0x3C3BFEE8,
  0xBE03216C,  0xBE3CD329,  0xBE455B74,  0xBEA033A5,  0xBE25C819,  0xBDBB1A1D,  0xBF108D5D,  0xBE63E3A2,
  0x3DE40825,  0x3DA87FD3,  0x3D824463,  0xBE3816B5,  0xBE261A6F,  0xBE8FABBD,  0xBF388EDE,  0xBEA827BA,
  0xBECD0203,  0xBF3959C9,  0xBCC90500,  0x3D2525E3,  0xBDED059F,  0x3EDCB68A,  0x3E9E9144,  0x3D7FAFB0,
  0x3F014D3B,  0x3EEFC401,  0x3E4FD826,  0x3EAE9F01,  0x3EBAFE0B,  0x3CF00C26,  0xBEA288FC,  0xBED68F49,
  0xBF448396,  0xBF1EEC15,  0xBF1F6738,  0xBF90852B,  0x3F26F539,  0x3E8562CC,  0x3F24384E,  0x3E02550D,
  0xBEB2C1FA,  0xBDEB1B04,  0x3EA093D8,  0x3E09CB0D,  0x3E6F5F4F,  0x3EA93C25,  0x3F09D6B8,  0x3ECBA921,
  0xBE9B428A,  0xBE2FCA3C,  0xBE9F6BE2,  0xBF2675FA,  0xBF011226,  0xBF39B0DA,  0xBB674D70,  0xBD1CE063,
  0x3D0A3589,  0xBD49C938,  0xBC2967E2,  0x3C21C830,  0xBC339CB1,  0x3D1AD513,  0xBD07E8F5,  0x3F249ED4,
  0x3F8098A0,  0x3F8216C4,  0xBE6A2BC3,  0x3CD50D70,  0x3D63127C,  0xBF3FBC6B,  0xBF1C3383,  0xBF301D73,
  0xBDB08A5D,  0xBE082361,  0xBE5F936D,  0x3DE054AC,  0x3DEDAB7B,  0x3D2A3469,  0xBDB51FC3,  0xBC406F28,
  0x3E089D42,  0x3B44813C,  0xBCE13D4B,  0xBDABA00F,  0x3E885C4A,  0x3E32D82B,  0x3E267A3D,  0x3E744220,
  0x3E9EA887,  0x3E469478,  0x3E965DF0,  0x3E653A62,  0x3E6275D5,  0x3DA9B5CE,  0xBDAC6098,  0xBB8F8D61,
  0x3D80BE97,  0xBD44D5C0,  0xBC9B1FF1,  0x3EE2F513,  0x3E28244D,  0xBE01816E,  0x3EE28EC4,  0x3D3AFAAB,
  0xBE48B6CD,  0x3DCA69EF,  0xBEA6937D,  0xBEE06216,  0xBC09EBB5,  0xBD255C21,  0xBD8151A8,  0x3E0069B1,
  0xBD149382,  0xBDDF3ECF,  0x3CFFA17F,  0xBA3F3F16,  0xBDA12B37,  0x3ED0C7A0,  0x3E25D078,  0x3E5D48D2,
  0x3E1C1576,  0xBE28423A,  0xBE39AF80,  0x3D3390AF,  0xBE14D572,  0xBED09797,  0x3F1D0CF1,  0x3E5F5D6A,
  0x3E88B537,  0xBF103321,  0xBE8BE048,  0xBE31A010,  0xBF65C6FD,  0x3D777A10,  0x3E65C046,  0x3E8D2E57,
  0x3EE10A65,  0x3F12F510,  0xBD85AAD9,  0x3DDBA9B2,  0x3E85DB57,  0xBE22EA4C,  0xBD4CD9BE,  0xBD89AF02,
  0xBDFE3383,  0xBE56DC8D,  0xBDA00E8F,  0xBE4C5A59,  0xBD2599EA,  0x3CA3246F,  0xBE82748D,  0x3D207763,
  0x3EC854BD,  0xBE4D7730,  0x3DEB3719,  0x3E116811,  0xBBA09A03,  0x3DE62E2F,  0x3D5B3B53,  0x3E62C087,
  0x3E4702FB,  0xBE2C65F2,  0x3E26451D,  0x3D5CC213,  0xBC942EEA,  0x3DC62F57,  0x3D8B688F,  0xBDB33E77,
  0x3DE4D99B,  0x3D123C5E,  0xBDCFED1C,  0xBDD42CA8,  0x3E9CD851,  0x3EF56E2E,  0x3C9F9303,  0x3EBAAF01,
  0x3E973DC4,  0x3E5C01F1,  0x3E391ECE,  0xBC7D22E4,  0xBEDA169D,  0xBEA76209,  0xBD12649D,  0x3C5A9FA9,
  0xBDEBE1B1,  0xBE8837DD,  0xBF147E32,  0xBF2228CF,  0xBF3030DB,  0xBE7284E5,  0xB91433CA,  0x3E62700C,
  0xBE1BFB1D,  0x3D8BEB9A,  0x3E9F054E,  0x3B4C28DC,  0x3E5383BA,  0x3E492006,  0x3C850994,  0x3CFA204E,
  0xB83AB604,  0xBC86B3C3,  0x3D2B2D23,  0xBC51A107,  0x3CE21ECC,  0x3D263318,  0x3CED4F7C,  0xBE042727,
  0xBCA82B5F,  0x3EC3C741,  0xBCFC3B9E,  0x3E29D49C,  0x3EE60D4C,  0xBD9391C7,  0x3EB1E7AA,  0x3EF3FE99,
  0xBD513A39,  0xBDEB8601,  0xBD056ADE,  0xBD8AA068,  0xBD9FA5D5,  0x3DE1963B,  0xBDF77DB9,  0x3D2EE439,
  0x3EBE417A,  0x3D279E72,  0x3D063194,  0x3D24499F,  0x3DBA10BC,  0xBC39AECF,  0x3C7888BE,  0x3DACD994,
  0x3D82EEB6,  0x3D4125A3,  0xBD707EA2,  0xBD510623,  0x3BD69D4A,  0x3D1CEFA8,  0xBCB518B9,  0xBDC68D45,
  0xBE305081,  0xBDFF7C2F,  0xBDFFE360,  0xBDA86E68,  0xBE49F543,  0xBDF1D260,  0xBE11E602,  0xBE5194E0,
  0xBDE6C6CA,  0xBE19F3B3,  0xBE7050E8,  0xBE116532,  0x3D572466,  0xBD15F65B,  0xBD992D8B,  0xBD9F812F,
  0xBDCBCB6A,  0xBDB82F20,  0x3C85D9D0,  0xBD1ADBBB,  0xBCC84B64,  0x3DA3F9D9,  0x3E0F8540,  0x3DC970FF,
  0x3DDD4986,  0x3E83CCA1,  0x3DD5FF08,  0xBD8F0E17,  0xBCC18580,  0x3AD9B291,  0xBF7A8274,  0xBF322B1F,
  0xBD8564FE,  0xBF55AABE,  0xBEE62897,  0x3E1EEC82,  0xBF1CB756,  0xBDC7ECA3,  0x3F0DC8E7,  0xBD3247FC,
  0x3C497554,  0x3DCA7B8A,  0x3DA0E849,  0x3E0349DA,  0x3E143223,  0x3D19034A,  0x3E7498C5,  0x3E43D684,
  0xBD8581FA,  0xBE02272C,  0xBE380B7B,  0xBD9F2ECC,  0xBC835776,  0x3EB6EBF3,  0xBE56CB68,  0x3BE642BD,
  0x3F1F2A74,  0xBD95C760,  0x3D993EB0,  0x3E33BC84,  0x3D0F6AA5,  0x3E123D77,  0x3DB595EF,  0x3E23CF29,
  0x3DE4B656,  0x3D35879A,  0xBDB6A739,  0xBDFB8461,  0xBD083741,  0xBDAD398D,  0xBD32014F,  0x3B2B4AEE,
  0xBCAD2FC1,  0xBC38A23B,  0xBC841DD9,  0x3C20D85F,  0x3EB74DE0,  0x3F1A456B,  0x3E636D50,  0x3E9BCFCB,
  0x3E8A2A7E,  0x3E3F911F,  0x3E7117EE,  0x3E58C2F6,  0xBE9EDEAB,  0xBD9927B3,  0x3DE15227,  0x3CE44020,
  0x3DF85789,  0xBD577358,  0xBEA81E40,  0xBEF39DE5,  0xBEFB5A74,  0xBD94DEDC,  0x3D96A336,  0x3E7B7815,
  0x3C2825C9,  0x3E079E5D,  0x3E43732D,  0xBCBF2EF0,  0x3E7839CF,  0x3E8D8ACC,  0x3C8E2D3A,  0xBD3EF947,
  0xBBAA360A,  0x3CD366FE,  0xBB476D8B,  0xBCF1A10A,  0x3C7DD4AC,  0xBC625613,  0x3C2BE1FF,  0xBDA5C4E1,
  0x3DEF503C,  0x3E7972E4,  0x3CD2674D,  0x3E9C7964,  0x3E9120F6,  0x3C96A10A,  0x3E75F181,  0x3EBAEC9F,
  0x3D4463E3,  0xBCE04620,  0xBD2D17C2,  0xBD8F9287,  0x3CB27D22,  0x3EBFDF96,  0xBDF8D22A,  0x3D102B70,
  0x3F08A273,  0xBD10D314,  0xBD5330CC,  0xBC9130EE,  0xBD6923E3,  0x3D9020D4,  0x3CD1A288,  0x3D00BE68,
  0xBCE4703E,  0x3DBF094A,  0xBD1ED812,  0xBA754EC9,  0x3D45DA8B,  0x3BE7FF52,  0x3D082717,  0xBC56D6CD,
  0xBD9F53D0,  0xBDE2298A,  0xBE029684,  0xBEB00C4D,  0xBE5EC424,  0xBD99807E,  0xBEA7E675,  0xBE7F0443,
  0xBDEFC302,  0xBE2E3F95,  0xBE47260F,  0xBE0F8852,  0xBCF4E235,  0xBCDBD99D,  0xBD91BA7B,  0xBD3A6B6D,
  0xBBAA2D15,  0x3CE025E1,  0xBDAB5A2A,  0x3C6B91CE,  0xBCFA1E36,  0x3D97B379,  0x3E4B019D,  0x3E8C1742,
  0x3E1BC9E4,  0x3EA2B50D,  0x3E84D1A1,  0x3D6D16B6,  0x3DB330DF,  0x3E19C7C9,  0xBF83B374,  0xBF5C8AE3,
  0xBF074DFF,  0xBF5AED2C,  0xBF2BEDA8,  0xBE17727F,  0xBF55A258,  0xBECC068F,  0x3E3D2E23,  0xBDC96C43,
  0x3D64C979,  0x3CC91191,  0x3D2E5DCA,  0x3DC82B5F,  0x3D944FA7,  0xBD5E4C0E,  0x3DA5E8AD,  0x3B9CC4C6,
  0xBEA6ABB3,  0xBE9425E6,  0xBEF1C123,  0xBDB04C04,  0xBE3AE865,  0xBEB47362,  0x3DE57B38,  0x3D8BEBD2,
  0x3D2D0B25,  0x3CE623DC,  0x3DB283AD,  0xBCE3CCA2,  0x3D9DC70D,  0xBD469DF7,  0xBE0F1EC1,  0x3DC8C003,
  0xBDE28190,  0xBE724285,  0xBD45FF99,  0xBE01D8E9,  0xBE1F896F,  0xBDE79A87,  0xBDE47669,  0xBDE1D6A8,
  0xBDAAA27E,  0xBD5817DF,  0xBCDFD5EB,  0x3D9668AD,  0x3E4016C8,  0x3BD6FDA3,  0x3EA7A787,  0x3E38A5D7,
  0xBD7BC059,  0x3EAE7E09,  0xBAB357D0,  0xBE86722D,  0xBEC256EC,  0xBE3C26D8,  0xBE281B57,  0xB998AE90,
  0x3DCEEBBA,  0xBE2421DD,  0xBE4D9D30,  0xBE8DF635,  0xBEF0B325,  0x3DDBB1CF,  0x3E693531,  0x3AFC9950,
  0x3E4A0E25,  0x3E893237,  0xBCF30CBF,  0x3E4E82A1,  0x3E631A3E,  0xBE3CF741,  0xBCF79BAC,  0xBCE6FCEC,
  0xBD04927C,  0xBC70355F,  0xBD107C71,  0xBB173628,  0x3D08C4CD,  0xBD3FE692,  0x3CF588AF,  0x3D8EA396,
  0x3E60EA55,  0x3D361A65,  0x3E6B88B2,  0x3EA1F3B9,  0x3DFEE7C0,  0x3E44E0D9,  0x3EC333D9,  0xBD84CC7B,
  0xBE93B9E8,  0xBEBDAD07,  0xBEE3BCA5,  0xBE7A31AD,  0xBE7E6718,  0xBED7B61B,  0xBD96619E,  0xBC944D60,
  0xBCC2EBC3,  0xBCEE725C,  0xBD489AE2,  0xBD6B81D6,  0x3C909E38,  0xBD156B94,  0x3C09C49C,  0x3CEC61DF,
  0xBB560864,  0xBCE0DBD0,  0xBDE47AD0,  0xBD633855,  0x3CDBA65A,  0x3C2927C8,  0x3CAEA426,  0xBD20B53B,
  0xBABF4879,  0x3CFFC44D,  0xBDCBC59A,  0xBCB0C002,  0x3BB15905,  0xBDA8152E,  0xBD973C6D,  0xBD24E4E3,
  0xBAAAF764,  0xBDBAB46E,  0x3DDB4D56,  0x3DC254B0,  0xBD5EB298,  0xBDB84F10,  0xBA4623DF,  0x3BFE2BBA,
  0xBDA47241,  0xBB0683FE,  0x3CC92694,  0x3CEEDCC3,  0xBCCF705A,  0xBB288AC7,  0x3C9FDAB7,  0x3BB486B8,
  0x3E6810E7,  0x3DC46276,  0xBC3807A1,  0x3E16BE11,  0x3C83FFCD,  0xBD4FB3A5,  0xBE68339D,  0x3CD957FD,
  0x3E39B6A7,  0x3E344B0B,  0x3D8F65F9,  0x3CB6E73D,  0x3D0CC3B0,  0xBE011C36,  0xBE46F4CB,  0x3CDFD921,
  0x3E4B05AE,  0x3DDDAC99,  0x3D672CF5,  0x3E906147,  0x3CF7A568,  0x3CDEAF17,  0x3E403565,  0x3D41B9BC,
  0xBE2DCD44,  0x3E0CEE49,  0x3EDD573B,  0xBE06D8E0,  0x3C69BD42,  0x3E3F12A0,  0x3D85FD31,  0x3DC548EB,
  0xBD14A4F6,  0x3D862A29,  0x3C81F405,  0xBDE574A0,  0x3DC03E34,  0xBD2EFDDD,  0xBE365B36,  0xBD9B8898,
  0xBE6D2206,  0xBE8316DF,  0x3DA110E9,  0x3C45ECC7,  0xBD2EE45F,  0xBC427F52,  0xBE08E971,  0xBE22DA97,
  0xBD774CB0,  0xBE3AD202,  0xBDE8D6AF,  0x3C4933BB,  0x3DCB19A8,  0xBB961969,  0xBBE35B82,  0xBCA9B6DA,
  0x3D256A95,  0xBE256324,  0xBE640C11,  0xBE378C0E,  0x3DE80590,  0x3D8EE5A4,  0x3DB460D8,  0xBDAD157E,
  0x3DABBB0A,  0x3DD71DFD,  0xBED403D2,  0xBDE45AEE,  0x3E3B215C,  0x3D137003,  0x3E397759,  0x3E82CE33,
  0x3E4B0C03,  0x3E70B78F,  0x3E689967,  0x3E8A733C,  0x3D315856,  0x3DD51C49,  0xBCAB4DC1,  0xB974BAE7,
  0xBCFF4A6C,  0x3A21C2D6,  0xBD43FEF2,  0x3C1F08F6,  0x3C2DFF87,  0x3D16004A,  0xBB0987BF,  0x3DE1B841,
  0x3EB9FBBB,  0x3EB6E41B,  0x3EB88724,  0x3EA8DD07,  0x3ECF32D7,  0x3EF54278,  0x3E98B5A8,  0x3E82A570,
  0x3CDA997D,  0x3E5FF581,  0x3EE66BC6,  0x3D2F1AB9,  0x3DA302C9,  0x3E345779,  0x3DA7678B,  0x3DFD5B55,
  0x3CB7E267,  0x3D1E6694,  0x3D09342F,  0x3C8DD2D4,  0x3A9EE88D,  0xBC0EBEC5,  0xBDB8FEE0,  0x3D1A0318,
  0xBD49CC6C,  0xBD952342,  0x3B6A224F,  0x3CD9931F,  0x3C840761,  0xBCBADE9D,  0x3D1CAD4A,  0x3D79D4BA,
  0xBE05255C,  0xBD92AAD0,  0xBCD50029,  0xBE1CE317,  0xBDE359D3,  0xBE261C22,  0xBDD9AE59,  0xBD87BEF6,
  0xBD2A8637,  0xBE1A42E1,  0x3C048A18,  0x3D5AF95B,  0x3D33B5B8,  0xBC713F25,  0xBD4B930B,  0xBC7B5DCB,
  0xBDBC4329,  0xBDBD37C3,  0xBD900D7E,  0xBBC16023,  0xBC4D9EB1,  0x3DB67BC8,  0x3C07B6EB,  0x3CB1987C,
  0xBC2F6A25,  0x3C980497,  0x3CD52987,  0xBE56FF51,  0xBDFCF48B,  0x3D927883,  0xBF253092,  0xBF07EBD2,
  0xBEFC9BD7,  0xBEED5067,  0xBEC53AFA,  0xBEFD24BC,  0xBD7BF6C4,  0xBDBE808F,  0xBEEFED3A,  0x3D6E22BF,
  0x3E846222,  0x3E9DCAC3,  0x3E882D2F,  0x3EB99573,  0x3EC7B563,  0x3EBAE5AD,  0x3E8AA387,  0x3E83D28F,
  0x3D06A5C8,  0xBDAA0C3C,  0xBDCE7D8A,  0x3D974947,  0x3DEC9EAE,  0x3E87F9AF,  0xBADAA728,  0xBD9DD679,
  0x3BC4EE16,  0x3C4BA09C,  0x3C930D04,  0x3DC29AB3,  0xBD40804D,  0xBC65D95D,  0x3DB0FE1E,  0xBDD71C4A,
  0xBD71F8B3,  0x3D7216C3,  0x3CD869C5,  0x3C561CB7,  0xBD05EBFC,  0xBAFC9559,  0x3D5FD402,  0x3D8739F6,
  0xBCF3544E,  0xBD663056,  0x3D2821BB,  0x3D7C70BB,  0x3D9A9EE0,  0x3E04D887,  0x3E3A7A31,  0x3E2BB6A0,
  0x3E5FC092,  0xBE475176,  0xBDD3DE78,  0x3E30B081,  0xBDEFA862,  0xBDC68D75,  0x3BAA52D4,  0xBD1BD328,
  0x3DBEF91A,  0x3DFFA15B,  0x38A47357,  0x3D198254,  0x3D988ED2,  0x3D21305A,  0x3E123447,  0x3E09BFB4,
  0x3D76A027,  0x3E67B34B,  0x3E7197DA,  0xBDAD397D,  0x3CBC2FAD,  0x3DF3B5E9,  0x3B4A3E89,  0x3D3AB536,
  0xBCCFF4C3,  0x3D1394F0,  0x3CDDE6D8,  0xBD103958,  0x3D42E40A,  0x3CD6F298,  0xBD17E3B7,  0x3CD7ECAE,
  0x3E424529,  0x3E099F49,  0x3E320AE6,  0x3EB26DA8,  0x3E9E2FCF,  0x3D0BA546,  0x3DD9F728,  0x3E68ACB4,
  0x3D842DE4,  0xBD18E22D,  0xBD4C4B98,  0x3D8215F6,  0x3E15DB36,  0x3E90F87F,  0xBDC91313,  0xBE085B15,
  0x3D9B892F,  0xBC2E499B,  0x3C46A71F,  0x3C99DCC7,  0xBD0D3A8F,  0x3C266D19,  0x3D29625C,  0xBD338124,
  0x3D197B76,  0x3D117D7E,  0xBD38CF65,  0xBD380034,  0x3D5DC7A5,  0xBC07DB4F,  0x3C801E58,  0x3CFD92F3,
  0xBCE1A76F,  0xBCA624E1,  0x3D2D737C,  0xBE2A3D7A,  0xBDC25133,  0xBD3F9411,  0xBE1DE873,  0xBDB2062B,
  0xBDB64847,  0xBE222BA0,  0xBDCC2172,  0xBE0605CC,  0x3C4C0975,  0xBC420557,  0x3C87F4C8,  0xBD8BC8E1,
  0xBBEB07FE,  0xBCA22187,  0xBD31D336,  0xBCF0FA89,  0xBD52177B,  0xBCEF05A3,  0xBD12D0B3,  0x3DA34B7D,
  0x3E08F3E7,  0x3E134701,  0x3DEEF5AD,  0x3CE3A232,  0x3D66B7A3,  0x3D9A2716,  0xBF0CBA88,  0xBEFD6383,
  0xBE9F30CB,  0xBEF36CB9,  0xBED900EA,  0xBEC6679B,  0xBDB70B10,  0x3BA5BABE,  0xBDEF94CA,  0xBC1DA737,
  0xBCFF86EA,  0xBCFD9D05,  0x3D642E8F,  0x3E13BFBB,  0x3CF44DF5,  0x3D517733,  0x3BB52DA5,  0xBB9D471A,
  0x3D197720,  0xBE2018D3,  0xBE664286,  0xBC7F93CA,  0xBE6A1B81,  0xBE661DAF,  0x3D7D4E30,  0xBE0A9240,
  0xBDCEF67B,  0xBD8F7113,  0xBD1F8258,  0xBCA48A9D,  0x3DC427E2,  0x3D9F722C,  0x3DDF8688,  0x3DC0FE34,
  0x3D96B90F,  0x3E24E1AA,  0x3D3B4CA5,  0x3D7C03BA,  0xBCEE48C5,  0xBD70DAD9,  0x3CF31661,  0xBDD4E29E,
  0xBD7068A6,  0xBD6D1556,  0xBDAAD279,  0xBE5D45C5,  0xBDB7BCD0,  0xBD6E976C,  0xBCDEC73B,  0xBD148EC8,
  0x3CF228B3,  0x3E47C75C,  0x3E4C19FC,  0x3E9128B3,  0xBE28E1E0,  0xBE14D83C,  0xBE2C4645,  0xBE8EEE02,
  0xBE060E21,  0xBE3AFD9E,  0xBE23C830,  0xBE665D5B,  0xBE98B478,  0xBE156C56,  0xBD94BBDC,  0xBDFD24C7,
  0x3D0002CF,  0xBC667C1B,  0x3C6AC7CF,  0x3E0E307F,  0x3D470609,  0x3D8DC530,  0x3C7050E8,  0xBD2A38A5,
  0x3D2324A8,  0x3CBE5ACF,  0x3C8BB0F0,  0x3CF20530,  0xBC676666,  0x3C1DE90C,  0xBD347F40,  0xBDAD6F3D,
  0xBE10FE7C,  0xBE07E9D0,  0xBC74FA64,  0x3C52AC6F,  0xBDA3E62E,  0x3DBA8A6C,  0x3DB76D47,  0x3CCCF799,
  0x3D973010,  0xBDF79287,  0xBDF28D68,  0xBCB030C2,  0xBE8584FF,  0xBE926497,  0x3D43D7A5,  0xBE28274C,
  0xBDC4646F,  0x3B97E92E,  0xBCAD2324,  0xBBCB972F,  0xBC4E9F05,  0xBD83392C,  0xBD7127B5,  0xBD1A4D7F,
  0xBC61021E,  0x3CB13214,  0xBD43D61A,  0xBD1921A8,  0xBD785FFB,  0xBD4931EF,  0xBC4F9DCF,  0xBC664FE3,
  0xBD2134C5,  0xBD1098D6,  0xBD16FD0E,  0x3D6AD6AB,  0x3D59CC1D,  0xBD75D54C,  0x3D9877B2,  0x3D230A99,
  0xBD8A47DD,  0x3D02F4A9,  0x3DEE66C9,  0xBDBCCBC3,  0x3D62026F,  0x3D61BB04,  0xBBB9AD51,  0xBCF671B8,
  0xBBF99661,  0xBC7CAEA4,  0xBCDDFCF4,  0xBCF06CB7,  0xBD53BDFC,  0xBE2F8744,  0xBDA584B3,  0xBE234BCA,
  0xBE02247C,  0xBD742185,  0xBDCB373F,  0x3C673678,  0xBB4D90EB,  0x3D49E91F,  0xBD223C96,  0xBDCF0D78,
  0xBDD94357,  0x3E257491,  0x3E2F94A6,  0x3E250A35,  0x3E24642C,  0x3DBC77A9,  0x3D52E2EA,  0xBC05EBAB,
  0xBC7A769D,  0xBDA0BDAE,  0x3C0B22CB,  0x3DBDB24B,  0xBBC3A9A5,  0x3D5F3E83,  0x3DD4AF9A,  0x3D424534,
  0xBE06C609,  0xBE58F448,  0xBE76059A,  0xBE4E86DB,  0xBE30D93B,  0xBE722A54,  0xBD58084E,  0xBC9C0C27,
  0x3D507452,  0xBDF6C8B5,  0x3D2C7918,  0xBC9D33DB,  0x3C490AD7,  0x3D965A4B,  0x3D2DC641,  0xBD7F1B4D,
  0xBDA67C08,  0xBE1C857A,  0x3DAE22ED,  0xBD0220A1,  0x3D4ABD84,  0xBD4743F9,  0xBC266656,  0x3C855918,
  0xBD0A7799,  0xBD37B783,  0x3CBC112F,  0xBDFB4E61,  0xBBC11027,  0x3D132DBE,  0x3DD7CF59,  0x3E12F884,
  0x3C85626A,  0x3D95B2DA,  0x3E711662,  0x3D950521,  0xBE99A84F,  0xBE4BD04E,  0x3D7422B6,  0xBE6FBC45,
  0xBE589833,  0xBE3FFC9D,  0xBE00D9AC,  0xBEA3E3B5,  0xBEE5E1B7,  0xBC02D50A,  0x3B00CDD3,  0x3D6709CF,
  0x3CB41B20,  0x3DCBE4AE,  0x3D8E8244,  0xBD529286,  0x3D98ED4E,  0xBBBEAD7C,  0x3C2D8089,  0xBCD8F739,
  0xBD34943D,  0xB954C699,  0xBC07215D,  0xBCD1E9CD,  0x3CCBB6CB,  0xBCEF4E7C,  0x39C0B551,  0x3D61F03B,
  0x3DEFF0D2,  0x3CD92270,  0x3D89911B,  0x3E35260C,  0x3D95E9F9,  0xBD208A00,  0x3E2423A0,  0x3E084E53,
  0xBE2A3A92,  0xBE27C0EF,  0xBE8D3941,  0xBE09A8B5,  0xBE40C7AF,  0xBE728AB9,  0xBD753AAD,  0xBDA6BF47,
  0xBB7BBE67,  0x3D18E026,  0x3C10366A,  0xBD6E80F6,  0xBD1EDE7F,  0xBC99DBD0,  0xBC303670,  0xBCEA4F36,
  0xBCD37E32,  0xBC929031,  0xBD2FEAA2,  0xBD7A0607,  0x3D2A0735,  0xBD57E755,  0xBDA4F652,  0xBD9E6A88,
  0x3CBED6A0,  0xBD4DC79D,  0xBE05984D,  0xBBF364B0,  0x3C8A00A0,  0x3CED7EE1,  0xBC6D20B3,  0xBC318536,
  0x3ABB8AD1,  0xBBB208AB,  0x3D310950,  0x3D01AD87,  0x3D10621B,  0xBCEB02A9,  0x3CF39356,  0x3B018F6F,
  0xBC16F8F8,  0xBA0EA0D9,  0x3C86279D,  0xBD2A680C,  0xBCC27502,  0xBE48D8A5,  0xBDD99970,  0xBCEACB1A,
  0xBD3868C9,  0xBDAD9D60,  0xBDD21E68,  0x3E0B3F4E,  0x3DBECBC6,  0xBD2B4A50,  0xBD609B61,  0x3D838095,
  0xBCF28587,  0x3E7E3676,  0x3E0386C1,  0xBCEB2FE3,  0x3E50D88F,  0x3C329E9D,  0xBE381389,  0x3D2610C8,
  0x3DC474D7,  0x3CB1F8DE,  0x3D23F32D,  0x3E1D41B6,  0x3DC85ED9,  0x3DB9819D,  0x3E0FF61C,  0x3DC07BFD,
  0xBE385081,  0xBEE74B86,  0xBF253EB3,  0xBE872405,  0xBE7EFCCC,  0xBF008B56,  0xBD7DA860,  0x3DAE2826,
  0xBE5C95A2,  0xBDA8BF33,  0x3D63AB33,  0x3E6CBC42,  0xBDE4E156,  0xBD5D180C,  0x3E0BA3DE,  0xBE4DBEAD,
  0xBDB4B0A2,  0xBBF994B0,  0xBE229AE1,  0xBE2A4FB2,  0xBE2BB3DB,  0x3DD431FF,  0x3DE7B3AA,  0xBD08B09A,
  0x3E351A55,  0x3E225C51,  0x3D40E7C8,  0xBE4FF483,  0xBE881126,  0xBE205116,  0xBF107771,  0xBF009946,
  0xBE910965,  0xBF0D4F78,  0xBEBEF8A6,  0xBE481C64,  0xBE62AE20,  0x3C720655,  0x3E4613B4,  0xBEF0FE0F,
  0xBE94BAB0,  0xBCD7A738,  0xBF088A1B,  0xBE20E5DB,  0x3E618056,  0x3CEC8F3B,  0xBD44C633,  0xBBB958E1,
  0xBE93B663,  0xBE7E1F46,  0xBC8819F1,  0xBE9A420A,  0xBE03D1D3,  0x3E57342E,  0xBBB47E9A,  0x3C922599,
  0xBD142B43,  0x3CCD3310,  0x3A709264,  0x3D3134D6,  0x3D37621C,  0x3CBAED44,  0x3D14B48A,  0x3E07C685,
  0x3C7200CC,  0xBD95E07C,  0xBE1AA1F3,  0xBE74B157,  0xBD64459A,  0xBE90D1E5,  0xBDD0F996,  0x3E8EFF7D,
  0xBDBB7339,  0xBE464EB1,  0xBEFCE7C3,  0xBD84A78D,  0xBDD6A922,  0xBEC27A57,  0xBDD1FF8D,  0xBCB6E1D2,
  0xBE4AEBBE,  0xBCA03472,  0xBC21C19A,  0xBD3CBD67,  0x3D4CD005,  0x3CAA634B,  0xBC8B8598,  0x3DA38CE4,
  0x3B8AE807,  0xBBA953E7,  0xBD1951EF,  0xBD805F35,  0xBD9CB61D,  0xBE31FB92,  0xBE56747A,  0xBD9F0350,
  0xBE40B2F2,  0xBD883973,  0x3CA895DD,  0xBD6E1BDE,  0x3D1AEDDC,  0x3CE9CEFA,  0xBBB1594E,  0xBB3CD73C,
  0x3C55D934,  0xBCEBEFBA,  0xBD035F39,  0x3C81A0A1,  0xBD0614E9,  0xBC6E8B9D,  0xBCF37B98,  0x3CF8F3DB,
  0xBCF7A132,  0x3C49865D,  0x3C98E00E,  0x3D5711F5,  0xBC4C6CA9,  0xBE2AB96C,  0xBCB0745D,  0xBCB82878,
  0xBEA47136,  0xBE8229A5,  0xBD215E29,  0xBE9D2138,  0xBE563A01,  0xBD578FA9,  0xBDC35405,  0x3E92907C,
  0x3F67D678,  0x3E8C7219,  0x3E88A438,  0x3ECAB963,  0x3F515772,  0x3EEA907D,  0x3DA940AD,  0x3C9BAB42,
  0xBDB7EAF1,  0xBE492E90,  0xBC719361,  0xBE2A0A9F,  0xBDEE3BE6,  0xBD5EF935,  0xBD10A5FC,  0x3D93DBD1,
  0xBE0C3714,  0xBCD94D76,  0x3E7556E1,  0x3DFAD3EA,  0x3EEC60DB,  0x3F47445D,  0xBEF0F401,  0xBE2040AC,
  0x3BBA7433,  0xBECDF4C8,  0xBE94418F,  0xBDD216F3,  0xBE08B775,  0xBD3E3548,  0x3DD8C911,  0xBEB47246,
  0xBEA51AB9,  0xBD50A051,  0x3EA81647,  0x3EAC21DE,  0x3ED0EB83,  0x3D11FB93,  0x3DEA3500,  0x3E963D9C,
  0xBF19FC3D,  0xBF1B916C,  0xBEC28A38,  0xBF17765C,  0xBEE6CB2B,  0xBEACE45F,  0xBD6927C6,  0xBDC08FB1,
  0x3E89DB3C,  0x3EABD60B,  0x3E757F01,  0x3EEDD106,  0xBD461406,  0x3D576FBD,  0x3A555C04,  0xBE797F81,
  0xBD83B8CB,  0x3EB0C3C2,  0x3D748BCC,  0x3EBB8BCE,  0x3F3F633B,  0xBE9ECB23,  0xBECFBA64,  0xBEA1D0D0,
  0x3E046F2B,  0xBCBF7A78,  0x3DCEA2DC,  0x3CD55DD5,  0x3C588E29,  0x3E48611B,  0x3C6CE3F2,  0x3D38A2CA,
  0xBBB427B4,  0xBC7344E8,  0x3C4CB8AA,  0x3CAE5421,  0xBCE2F4F4,  0xBD30AFE6,  0xBCC07539,  0xBEA7D3EC,
  0xBEE04C49,  0xBEE3F535,  0x3DCE3D84,  0x3D17851B,  0xBDEA10A6,  0x3D8268BD,  0x3BD6BBC0,  0x3E1F3427,
  0x3DE28C0C,  0x3D81E60F,  0x3EC90486,  0x3E8ABCFC,  0x3F023BAC,  0x3F77D149,  0xBF0C2DE3,  0xBE11511A,
  0x3DBF5910,  0x3E08780F,  0x3E3F3CB1,  0x3E98DC83,  0x3CCCB927,  0xBB25B975,  0x3DDCB944,  0xBEAD29FF,
  0xBE465E07,  0xBE354B00,  0x3C2E785E,  0xBC30B061,  0x3BCF4953,  0xBCDD19CA,  0xBD56110E,  0x3E0765D1,
  0x3DAD3F3B,  0x3D4446D1,  0x3E3B626A,  0x3DABEBCA,  0xBE0A6BAD,  0xBE590748,  0x3D8633D7,  0xBD01E741,
  0xBE18EAB4,  0x3E935835,  0x3E1ED25B,  0x3DAD789D,  0x3D1F7061,  0x3C8A7159,  0x3D8A2276,  0x3D045763,
  0x3980C0E4,  0x3E00C7C4,  0xBDE5ACD2,  0xBE2559EC,  0xBDF63345,  0xBDA5FE75,  0xBE007A82,  0xBE427B9B,
  0xBDB1E55D,  0x3B34ADA2,  0x3D3742EC,  0x3EFA2F1F,  0x3F10E946,  0x3F16EFE6,  0xBFA0081E,  0xBF801AB5,
  0xBF6F59CB,  0xBF8EE5E2,  0xBF47E68D,  0xBF08E598,  0xBF012768,  0xBE098E6E,  0x3EAA0945,  0xBDD7B846,
  0xBD92E5DD,  0xBD7E2095,  0x3DB1B3CD,  0xBB15848A,  0xBD1C1597,  0x3DC5AB63,  0xBCEA0A2C,  0x3D63EBEE,
  0xBE554CF0,  0xBE10BC50,  0xBDB3D53F,  0xBE983F86,  0xBDE5C456,  0xBEC40285,  0xBD89FE64,  0x3E2473D0,
  0xBE5186EC,  0x3D6AB6FC,  0x3DAF5731,  0xBCD8F390,  0xBE6FE3CD,  0xBE20C197,  0xBE56871F,  0xBDA886B6,
  0x3CB17DB2,  0xBDC42EFA,  0xBE2617E9,  0xBDC1D388,  0xBDD081B5,  0x3D2D3E01,  0x3DDE2087,  0x3D831ED7,
  0x3EAFA5C4,  0x3E80EB32,  0x3E66FA6A,  0x3CB4290F,  0x3D2AFB1D,  0xBD90D9B8,  0xBEF26EAD,  0xBE8D5591,
  0xBEB4D1FD,  0xBF1577E8,  0xBEEFEBD1,  0xBEF0F146,  0x3EC91C08,  0x3E8384CC,  0x3EDDC8EC,  0xBDCC065A,
  0xBE667075,  0xBE12D19D,  0xBE67AB02,  0x3D10D896,  0x3CB7341C,  0xBD5B3C61,  0x3D3656F9,  0x3DC4F04C,
  0xBEDA2E9C,  0xBE9D4F74,  0xBE5242A2,  0xBE905288,  0xBE241BAA,  0xBE5FE6B3,  0xBD03B979,  0x3C478F05,
  0xBD238084,  0x3CD01BBD,  0xBD2BEF88,  0x3CF75EEB,  0x3C98774A,  0x3CB40614,  0xBBE43CE5,  0x3CEDAF61,
  0x3E153946,  0x3E8BE3A8,  0xBEB89232,  0xBE77BA88,  0xBDE22DEC,  0xBECF7684,  0xBE96BC85,  0xBE367D32,
  0xBE01E8BE,  0xBE49C08B,  0xBE4471D4,  0xBE093A7E,  0xBE1DCA7C,  0xBEAF9666,  0xBD5DAFFF,  0xBDD8634D,
  0xBE504043,  0xBCACD6FB,  0xBDAB9FD1,  0xBCF876A9,  0x3D7DE699,  0x3D81CFEE,  0x3CFDF0E8,  0x3E0C22E8,
  0x3DC91CF0,  0x3DFFB7DB,  0x3CD00630,  0x3D7BA073,  0x3DA78B1A,  0xBD782983,  0xBD7AB1FD,  0xBE12D767,
  0xBD726970,  0xBD068C26,  0xBC626183,  0xBDA5FB1B,  0xBD861F4A,  0xBDCAF3EC,  0x3BDBEBD6,  0xBD6972CA,
  0xBD11B747,  0xBE110F1E,  0xBDD49A3F,  0xBDD7FC3A,  0x3B9FABB1,  0xBD63E597,  0xBDBCF39B,  0xBC3AA1B1,
  0x3D0BAF64,  0xBD4BB118,  0x3CD272E0,  0x3D420DD8,  0xBCC2C1B4,  0x3DD0F05F,  0x3C021FE6,  0x3D44DD31,
  0xBE0FED55,  0xBDEC56FD,  0xBE874DD0,  0xBE8C32DC,  0xBEA58030,  0xBEAA4EB0,  0x3EF19130,  0x3F03ECA9,
  0x3ED7EB6D,  0x3CFF22F8,  0x3D0EFB33,  0xBDA8C271,  0x3E8F8D86,  0x3DE3E9F0,  0xBD98C39E,  0xBDE77E04,
  0xBDA828E8,  0xBCDD7C70,  0xBE7BC618,  0xBE104C07,  0xBE1336DB,  0xBE13FB6A,  0xBDF1ECD7,  0xBB93F092,
  0x3D10950B,  0x3EF821F8,  0x3E06F413,  0xBEB32206,  0x3E134C5D,  0x3E667734,  0xBE95BA30,  0x3E8491BB,
  0x3EDC305C,  0xBE784117,  0xBE165684,  0xBDD219D1,  0xBECA71CC,  0xBEBB0278,  0xBE36F17D,  0xBEFAEF32,
  0xBEEF171A,  0xBE38A6B4,  0xBD249A15,  0xBD47E166,  0x3D0B4296,  0xBE13E5D5,  0xBD03BD5F,  0x3E395E21,
  0xBDBDA6E1,  0xBD51522F,  0x3C420F68,  0xBED70161,  0xBE466C14,  0xBE2F8D44,  0xBE6BBB74,  0xBE28805D,
  0xBE63AA6C,  0xBEBAFC87,  0xBEA2E97C,  0xBD2C8418,  0xBE8FD16D,  0xBE9D39A2,  0xBE0117E3,  0xBF123BF1,
  0x3C0242EA,  0x3E8BAD91,  0xBEAB567D,  0x3D1C56C0,  0x3E3800D7,  0xBEA629E3,  0xBDF10622,  0xBE511CD7,
  0xBE41F954,  0xBD552CBC,  0xBE8C9FA1,  0xBE813DA5,  0xBEAE8756,  0xBEB27531,  0xBCFE8C42,  0xBAFA48D4,
  0xBCC26509,  0xBCB8D3C9,  0xBCB6DA15,  0x3BE5ECD8,  0x3C8FBCE6,  0x3B4486B7,  0x3CE3CD60,  0xBE3420B3,
  0xBE10BB12,  0xBE90750A,  0x3D4472E1,  0xBB230525,  0xBEAA6BF6,  0x3D3E7AB4,  0xBD859DD6,  0xBEDB833E,
  0x3E32ACB0,  0x3ECEA26A,  0x3EAB910E,  0xBB6616ED,  0x3E84B40E,  0x3EECA87F,  0xBAD84A49,  0x3E9E5E65,
  0x3EE78484,  0x3BB5753C,  0xBC23C079,  0x3D896351,  0xBCB90DE1,  0x3CD8DDAA,  0x3E18497B,  0xBC1B32CF,
  0x3CEBAE83,  0x3CBEEE36,  0xBD9075D4,  0xBD7ABA7A,  0xBD6BF3E7,  0xBE064E74,  0xBD1EEA2C,  0x3C9723ED,
  0xBE156C2C,  0xBC4C797D,  0x3C35636A,  0x3DB4079B,  0xBE1D1E9E,  0xBE286008,  0x3DB1A014,  0xBDE6DDC9,
  0xBE16563C,  0xBDF561F8,  0xBE6168DD,  0xBE706AC6,  0xBD8B167C,  0xBE07E8F1,  0xBD81392E,  0xBD49735B,
  0xBD00AF13,  0x3C3F63EC,  0x3D2180FF,  0xBC603C42,  0xBD40E81F,  0xBD642433,  0xBDFB315C,  0xBE642E68,
  0xBDA9D860,  0x3D98ABE8,  0xBBC13A6A,  0xBE07AB0E,  0x3D11486E,  0x3DBB6AFB,  0x3F0147BA,  0x3EF4BEF3,
  0x3F09F30A,  0x3EB7C76B,  0x3E2283B5,  0xBD4D53DB,  0x3E086754,  0xBE5B2C75,  0xBF27BC3D,  0x3DF13658,
  0xBD81E28A,  0xBE4505E1,  0x3E50FB94,  0x3D9DDD9E,  0xBE170193,  0x3E4C7718,  0x3DE9013D,  0xBE3EA56A,
  0xBEBFAF61,  0xBECBBA3F,  0xBEE5542F,  0xBE76EF66,  0xBE9CB7C7,  0xBE9E9859,  0xBEA3BFAD,  0xBE7BA7D7,
  0xBEACF7B5,  0xBD0F4ED3,  0x3DE14939,  0x3DAFA450,  0xBDB0C5A1,  0x3DA9E819,  0x3D9ECC6E,  0xBEBA1731,
  0xBE8D0E6C,  0xBEE31010,  0x3E2D64FF,  0xBD40C97D,  0xBE7C84D3,  0x3E9E9470,  0x3CBBBC71,  0xBE662CAB,
  0x3EF11429,  0x3E369982,  0xBE482A1D,  0xBDD65DCA,  0x3D212CCB,  0x3E42B26D,  0xBE6174B2,  0xBE5B72EE,
  0xBDBB041D,  0xBE8EA4B7,  0xBE8CE7A5,  0xBE8067F0,  0x3E085719,  0xBF1815A6,  0xBF93089A,  0xBC3F125E,
  0xBEA988A2,  0xBF3523D5,  0xBE8BB911,  0xBC37DC18,  0x3E2E7F6B,  0xBEB4DCF0,  0xBE802750,  0x3DE2FADC,
  0xBE996BFE,  0xBEA55965,  0xBDA995CC,  0xBE9E0993,  0xBE7F9F52,  0xBE3AD1DF,  0xBD28B64F,  0xBD412DE8,
  0xBCD01EB8,  0x3D0668CD,  0x3BC6F5FE,  0xBD380210,  0x3D2EB171,  0xBC886207,  0xBCA78680,  0xBE6C4FF8,
  0xBEBE859F,  0x3E1ED1A4,  0xBE947973,  0xBE7A15A8,  0x3D8FFE64,  0xBE6A69A7,  0xBDC1FE63,  0xBCECD874,
  0xBD64D888,  0xBE30E9FE,  0xBED0EDE5,  0xBCB266EB,  0xBDDC194B,  0xBE97C07F,  0x3D7F2664,  0xBD1553A8,
  0xBE936E24,  0xBC544EDE,  0xBD5772AB,  0xBE2846AB,  0x3B1120DE,  0x3BA0B2E9,  0xBDEAB7D6,  0x3E241EFB,
  0x3DCBA9CD,  0xBE1BECBB,  0x3D282FAA,  0xBDA65C7F,  0xBE20622C,  0xBC36F1F7,  0xBDBEAEE7,  0xBE09F8B0,
  0xBD11A83A,  0xBC6F8674,  0x3DFAA3E3,  0x3E5BB008,  0xBD7DB9CD,  0x3DCC9D58,  0x3EA0A208,  0xBC1BC0FD,
  0x3D2E1C58,  0x3F0D8980,  0x3D871EE9,  0x3E29A8EF,  0x3CF218A1,  0xBD6384E9,  0xBDAF7F65,  0x3D699684,
  0xBBF6ACE9,  0x3C5DAA17,  0x3E07C149,  0x3BC266A2,  0xBCF98223,  0x3EABE842,  0xBC90D3E8,  0xBE12788F,
  0x3DB06618,  0xBD79E6C9,  0xBDC763F9,  0xBD770983,  0x3C1AAA14,  0x3E60DB14,  0xBEDFBAC5,  0x3E9CC176,
  0x3F462BB1,  0xBF6A3881,  0x3E03135E,  0x3F869933,  0xBF7DB14C,  0x3CDC3365,  0x3F810D25,  0x3D04C1EE,
  0xBE01A769,  0x3D855536,  0xBC29204E,  0xBD7DB55A,  0x3E44B637,  0xBC2162BC,  0x3C4B7615,  0x3E4E18D6,
  0xBED194A7,  0xBE1ABDC3,  0x3D65D98F,  0xBE5FC236,  0x3EC63C4F,  0x3F28A2B2,  0xBC703493,  0x3EC58ABF,
  0x3F5C0375,  0xBDDDE6A5,  0x3D0F7875,  0xBE6A8A2A,  0xBEAB1862,  0xBEA121E4,  0xBF19886A,  0xBECE3F0B,
  0xBEBB14D7,  0xBF40329B,  0xBDE9B059,  0xBE7BFC3B,  0xBE5A1EB5,  0x3E68694C,  0x3D46E16E,  0xBD37BCD6,
  0x3E554E33,  0x3D175B05,  0x3DED388D,  0xBF07526B,  0xBE8DDCD4,  0xBEDE2F31,  0xBF2CE3E1,  0xBEDC54C4,
  0xBF3BAD35,  0xBF20A514,  0xBEEBC432,  0xBF575108,  0x3E1CE457,  0xBE278F59,  0x3D2407A1,  0xBE57A6C1,
  0xBE0C1984,  0xBE033CFE,  0x3F3382BF,  0x3F4B51A4,  0x3EF081B2,  0xBF152A4E,  0xBE8290F8,  0xBE2F942D,
  0xBF26993D,  0xBED65448,  0xBF0201BE,  0xBF2C6586,  0xBEDBA342,  0xBEFA748C,  0xBAF9B72E,  0xBC2C4C2A,
  0x3C738887,  0x3B9C6EDE,  0x3D030E4C,  0xBB7A4555,  0xBC90C054,  0xBBAEFAA6,  0x3CB3D9AF,  0xBF3D583B,
  0xBE4BD34B,  0xBC016C3C,  0xBF78CDC6,  0xBF1947B5,  0xBF21A6BA,  0xBF5E45DF,  0xBF170F8D,  0xBF2BE841,
  0xBF0FED44,  0xBE649824,  0x3B250E39,  0x3D74335C,  0x3ECD876E,  0x3F2BB97D,  0x3EF2387F,  0x3F1E64F3,
  0x3F71254F,  0xBD2EE84A,  0xBD11BABB,  0x3D61629A,  0x3C4CC717,  0x3D0F26B3,  0x3DB24905,  0x3E2E98A7,
  0x3E231FE7,  0x3E449419,  0xBE23EB1B,  0xBE83152D,  0xBE4F4F2B,  0xBE3ED16F,  0xBE08E479,  0xBE369904,
  0x3E02EDC4,  0x3D9535D0,  0x3B363632,  0x3E6C9972,  0xBE89BDE0,  0xBEA1FA1A,  0x3F007A10,  0x3D165772,
  0x3DB126B3,  0xBE5C077E,  0xBEC57916,  0xBE9B5BB4,  0xBD3CB5ED,  0xBE53D116,  0xBE4FCE42,  0x3DC5B11A,
  0x3B3D535D,  0x3D64D6B1,  0x3CE69680,  0x3C45F5C6,  0x3DEEC2FA,  0x3CB9B9BD,  0xBE4E5A48,  0xBEA668F2,
  0xBCC6AC0E,  0xBC8E8347,  0xBE893705,  0x3E8C2B7E,  0x3E3B4EB6,  0xBDBAE41C,  0x3EC14D65,  0x3F8CD7DC,
  0x3FA1F1C8,  0xBF11D4A1,  0xBD18CC34,  0xBD4B5709,  0xBF8A7393,  0xBF132B57,  0xBF2BFF78,  0xBECA5969,
  0xBE38E49C,  0xBD077E3A,  0xBEDFEA10,  0xBE5C29D3,  0xBE17BEEF,  0xBEDB9DBF,  0xBE6BA614,  0xBE3959F3,
  0xBD80BB7A,  0xBE05872C,  0xBDA5C363,  0xBB672BED,  0x3C265575,  0x3E05C025,  0xBCD4ED64,  0xBE08188A,
  0x3BB48CE6,  0xBDAE5E8F,  0x3CB713A6,  0xBB380118,  0xBCAE82EC,  0xBD1117CD,  0x3CCAFCA0,  0x3DAAA791,
  0x3DAF1EBF,  0x3E01C9EE,  0x3DED0891,  0x3CA48A5D,  0x3D7F3864,  0xBCDA94D6,  0x3CFCC6D4,  0x3D7C4832,
  0xBD5AF82E,  0x3C0BC96A,  0x3B8FF2D5,  0x3D5D7ECF,  0x3D858E55,  0x3E1E83C4,  0x3E828A60,  0x3E92D223,
  0x3E903176,  0x3DA372E3,  0x3D91B8A4,  0x3E2893BC,  0xBE27C0CC,  0xBE1B14C6,  0xBAE477D1,  0x3E22A66F,
  0x3E875CCD,  0x3E674442,  0x3E696623,  0x3DD2A778,  0xBC030C5D,  0x3CA2C3D9,  0x3D7DF535,  0x3DEDEC27,
  0xBD04257C,  0x3D97BBAB,  0x3E4463FC,  0xBD1DDD5A,  0x3D35FB90,  0x3E4B0279,  0xBD05377F,  0x3D348382,
  0x3D37C432,  0x3D418A60,  0x3D269913,  0xBBEBAC6B,  0xBD14E75B,  0xBCE51439,  0x3D289B85,  0xBC39BF65,
  0x3DC11D60,  0x3D7FB955,  0x3D83CE99,  0x3E200DBC,  0x3E402CB3,  0xBD816035,  0x3DF53F03,  0x3E36ED80,
  0xBC44D302,  0xBD85636C,  0x3C76C2D9,  0xBDA5EC95,  0x3DBF93B7,  0x3E1AC72B,  0xBE143E29,  0xBD3F9554,
  0x3C925A34,  0x3D28A67C,  0x3DBB99BA,  0x3C8FF3E9,  0xBCDC99CD,  0x3D493587,  0x3C748422,  0x3A38EEBE,
  0x3CF8969B,  0xBCDBB3C5,  0xBC8023CB,  0xBD0196D8,  0xBC0AEDA3,  0xBBAF26E5,  0x3D2FCC02,  0x3D54C84F,
  0x3D2CF232,  0x3D443AA2,  0xBCBA7F51,  0xBD51C132,  0xBD38C18E,  0xBDD0D513,  0xBCAF24BA,  0xBE1C66FA,
  0xBE224CF8,  0xBD602739,  0xBDAC8054,  0xBE1889F4,  0x3D07D0D2,  0x3D069C57,  0xBC4FFBD4,  0x3CB69EE3,
  0xBB61C666,  0x3D205EAD,  0xBBA9DFBF,  0xBCB2926C,  0xBBFEA84F,  0xBCE5DA06,  0x3C9A4D0D,  0x3E2205AD,
  0x3E5170CE,  0x3E4A0797,  0x3E706FEE,  0x3E37F8C3,  0x3E27CA65,  0x3D1447EB,  0xBF4973DC,  0xBF2BEC19,
  0xBEF25AE6,  0xBEE5DF1A,  0xBEBC416E,  0xBE8A7DC0,  0xBEAA1C4D,  0xBD84E9CD,  0x3D3202CA,  0xBDEF2805,
  0xBC951942,  0xBD55FAA5,  0xBDD9E2EF,  0x3D74296F,  0x3CDDF8E7,  0xBE0DED83,  0xBD6BCAE6,  0xBCCA5FD6,
  0x3DD306F0,  0xBD81CF59,  0xBE85DD42,  0x3D933B45,  0xBE050DD8,  0xBE54CC04,  0x3E0C82F2,  0xBE22B166,
  0xBEC35C05,  0xBD9678AD,  0x3C1B94EA,  0x3DEEE881,  0xBE2417D6,  0xBE5E1C51,  0x3D8B51BA,  0xBE75C169,
  0xBE3D5304,  0x3E4EE1F8,  0x3D18AE75,  0xBE743AAC,  0xBE9B1910,  0xBC1F506B,  0xBCC068A8,  0x3CE7D67B,
  0xBC01F038,  0xBD7FE8D1,  0x3C174358,  0x3CD3BBEC,  0x3DE78535,  0x3E39F47B,  0x3DE5E893,  0xBD764D49,
  0x3E6133B4,  0xBDADAE95,  0xBE267E33,  0x3E3FF29F,  0xBF017864,  0xBE861559,  0xBCE843A7,  0x3E90E2FE,
  0x3F4820C6,  0x3F7C4002,  0x3F1E191B,  0x3F0AAFFF,  0x3F0FBEB3,  0x3D13CEE4,  0xBD1C6029,  0xBDE318BB,
  0x3E235A13,  0xBDDDC1C5,  0xBE291D08,  0xBCE121D4,  0xBE2D0A87,  0xBCD5286F,  0x3D483041,  0x3B2BA2E9,
  0x3D3005B1,  0x3CAB92F8,  0x3CB1A5DF,  0xBD4C70A9,  0xBCD0A518,  0x3D0F5ACE,  0xBCB2CF9E,  0x3DFC6A2B,
  0x3BE49E27,  0xBE6A8570,  0x3EAD08BE,  0x3C45109D,  0xBE9AC255,  0x3E9C4685,  0xBD66CC92,  0xBE6615E7,
  0x3DCAEE7C,  0xBE05B99F,  0xBE9C9AA6,  0x3D830E59,  0xBE465243,  0xBE410696,  0xBCB26525,  0xBE1A46DE,
  0xBE50F1BB,  0x3CE232A0,  0xBD4B90F5,  0xBE0902ED,  0x3D5ABFD8,  0x3D0F1EFB,  0xBCAC9473,  0xBCB67374,
  0x3CC151B6,  0xBD49C0E7,  0xBD8EC3C3,  0xBDEC9817,  0x3CC87AAE,  0x3D1BDFEF,  0x3E5952EF,  0x3E614A81,
  0x3E5CF60A,  0x3E3296D2,  0x3E726A9B,  0xBE557189,  0xBE43037E,  0xBE018D2E,  0xBE407C75,  0xBE57C36A,
  0xBDDB1287,  0xBE03A4CE,  0xBDA79F8E,  0x3D1CAED6,  0xBD7D544D,  0xBB4EA350,  0xBCA3815E,  0xBCFFDC13,
  0xBD7C4C7B,  0x3D3C4296,  0x3CF6B669,  0x3D0697CB,  0x3D137929,  0xBE31429E,  0xBD93CC75,  0xBD5C7CA7,
  0xBDB47506,  0x3DA4950B,  0x3E618E88,  0xBC68D1F3,  0x3CA3E483,  0x3E39F295,  0xBF0F2FF9,  0xBE51A6E6,
  0x3E8E8793,  0xBD10AEAE,  0xBDBA19B1,  0xBD8C28D1,  0x3E852919,  0xBE9F2437,  0xBF132C38,  0xBCBB437B,
  0xBE1B4912,  0xBEA4238B,  0x3D2977EE,  0xBCCB4E98,  0xBEA100B5,  0x3E56872E,  0x3DD18BAB,  0xBE0D73AA,
  0xBE98D95A,  0xBEF0EDD0,  0xBF3C21AA,  0xBE204DD1,  0xBDE3CF98,  0xBE740339,  0x3D6ACFFD,  0x3E4FCE67,
  0x3E7037B0,  0xBDFB5547,  0xBD1AD56E,  0xBE067E3F,  0xBDF5C4C5,  0xBCA299D1,  0xBE591F3F,  0xBE94F6DB,
  0xBDE7AA27,  0xBE6DAA1B,  0x3E629C13,  0xBC5A053F,  0xBDA645A4,  0xBD13AC3F,  0xBE1F902C,  0xBDD98F92,
  0xBE346C0B,  0xBE282EFA,  0xBD8B1F9C,  0xBD2FEC7B,  0x3D8C1D9C,  0x3D77EDD0,  0x3E07528F,  0x3E50990D,
  0xBDCCB31B,  0xBE4793C4,  0x3D9F100A,  0xBE029805,  0xBEEF6B3C,  0xBE9FF006,  0x3E3B34B9,  0xBF24BD1C,
  0xBEA9C459,  0xBCC98693,  0xBEA853E8,  0xBF38B30F,  0xBF46A381,  0x3C74E06F,  0x3E9AF117,  0x3E837D8A,
  0xBDF52B56,  0x3E98B113,  0x3E4D3687,  0xBED927BA,  0xBD8ADB5C,  0xBC616FA5,  0x3CA51929,  0x3D42A003,
  0xBCA4BFC7,  0xBD2BB9E8,  0x3D0466AB,  0x3D00CB75,  0x3CBE294C,  0x3D488EDB,  0x3B9A8025,  0x3E88E7FD,
  0x3EAD9D2C,  0x3EB38691,  0xBD24FC73,  0x3ECCED7C,  0x3F05350F,  0xBEE6E3B0,  0xBD180BB3,  0x3E25F756,
  0xBDF86BF3,  0xBEE4CF1A,  0xBF23EF22,  0xBE89833E,  0xBE6F1881,  0xBE91B9B8,  0xBE3541FA,  0xBCADF370,
  0x3D2F6F03,  0x3BF6F361,  0xBDA47391,  0xBD9ECD68,  0xBD154916,  0xBDF9895C,  0xBCC5821D,  0xBD90968C,
  0xBD8144F8,  0xBD557C39,  0xBE19A103,  0xBD84F563,  0x3D175FC6,  0xBE24B416,  0xBE1A7B73,  0xBD87A668,
  0xBDD4F105,  0xBDEADAA5,  0xBE14A0CD,  0x3E0D42C4,  0x3C9D7CE7,  0x3CD35DD2,  0x3D2431FA,  0xBCC06155,
  0x3CE8B830,  0xBB6263CF,  0xBD5005EB,  0x3E10FDFA,  0x3C11AB5B,  0x3C5143E6,  0x3CFD64DA,  0xBD3CC94D,
  0xBD013EC8,  0xBA9A9164,  0xBD8E6B5D,  0x3B8AFAC4,  0x3D1C1C09,  0xBE8A98E6,  0xBE38687B,  0xBE19AF1F,
  0xBE502607,  0xBE6BCED5,  0xBDF52A8F,  0x3E87049B,  0x3DA11FB3,  0xBE2986F2,  0xBD04A673,  0x3DD1D3FE,
  0xBDEFA8DC,  0x3EE0D8C5,  0x3E56FD42,  0xBDE805E6,  0x3F02413B,  0x3C2B9F48,  0xBE5006C4,  0x3E07C216,
  0x3E1086B6,  0x3E6FE45E,  0x3DEDA85E,  0x3E834A66,  0x3EAADF3C,  0x3C167747,  0x3E1F6F72,  0x3E6A7F77,
  0xBE5BE5C5,  0x3E775105,  0x3EE77ADA,  0xBE819173,  0xBD0B03F2,  0x3DF1A8F0,  0xBE2AC253,  0xBE2143AE,
  0xBCBDC1BB,  0xBDED919B,  0x3D26A0A3,  0x3D10C4E8,  0xBE1494E2,  0xBE264A72,  0xBD9C5A9B,  0x3D84E1F3,
  0x3C6C7300,  0x3D5A1C37,  0x3E2506F6,  0x3E862781,  0x3ED1C8F6,  0x3E206FCA,  0x3E446DBD,  0x3E88B423,
  0x3E818009,  0x3DF30D17,  0x3D1965EA,  0xBEA9BA4E,  0xBEBB9A1F,  0xBEA673FD,  0xBEC7BB09,  0xBE7E1B2F,
  0xBE16A5EC,  0xBEF218CD,  0xBF044BDA,  0xBEF6BCF0,  0x3D2F4BED,  0xBE73E3F1,  0xBE87BDCF,  0xBCA0EE54,
  0xBDB28B0B,  0xBD917E3A,  0xBEE33EA0,  0xBEF4842E,  0xBE5A7A0B,  0xBEBF7073,  0xBEAE5084,  0xBCEEB119,
  0xBED4C088,  0xBE64F79D,  0x3DC19E3C,  0xBE492B69,  0xBCEDC2F3,  0xBC2D6B2C,  0x3CCFC098,  0x3C307B2C,
  0xBD19733F,  0xBC40588A,  0x3D0621F3,  0xBC20980D,  0x3D20AD31,  0x3CA66553,  0xBD3987A4,  0xBEC34F40,
  0xBEB9CE85,  0xBE5FF596,  0xBEBAE4E0,  0xBE676111,  0x3D0575C2,  0xBE82E7C2,  0x3DCDB320,  0x3E5F552D,
  0x3BDC1546,  0x3EBEEDF0,  0x3F362E33,  0xBD1F6005,  0x3E496BB5,  0x3E925EC2,  0xBBED755E,  0x3E08DBB2,
  0x3D8D3102,  0x3DB29865,  0x3DA2A76A,  0x3E537784,  0x3D837E3C,  0x3D55E2FE,  0x3E1711E8,  0x3D60E10B,
  0xBBC4CD85,  0x3D8268EE,  0x3CDDFE8A,  0xBD5BFF33,  0xBC315259,  0xBCF1EC16,  0xBD8EB118,  0xBCAD9E79,
  0xBD67B76A,  0xBDFEC5A2,  0xBDAFCBFD,  0x3C141E53,  0x3AC91895,  0x3E2E2773,  0x3DD9BBB2,  0x3DE358EB,
  0x3E199CF4,  0x3D0B85E7,  0xBD2619F6,  0xBDA2E8C2,  0x3DBDC2A7,  0x3D312CD7,  0x3D73DBA0,  0x3D5F7436,
  0x3DEC59FA,  0x3D2C69B0,  0x3C0CE54A,  0x3DA920F4,  0x3CF6D3E4,  0xBDA3D52A,  0xBE3D8FB4,  0xBE42084B,
  0xBDDE4ED8,  0xBE292E2F,  0xBD32C53D,  0xBED9D948,  0xBEDECC8F,  0xBEBD03FE,  0xBE27C952,  0xBEB0F728,
  0xBEFDB1F6,  0xBEAADE52,  0xBDC653E6,  0xBDBA191E,  0xBD152030,  0x3F2E3B0E,  0x3F5A8D6D,  0xBE0F14D4,
  0xBE655395,  0xBE4C3343,  0xBE3CFBB3,  0xBE019BF4,  0xBD07DC9C,  0xBDF94086,  0x3E08D47B,  0x3E357E04,
  0xBE62D2C2,  0xBD9F67FD,  0x3D882E31,  0xBD83516A,  0xBCED34C4,  0x3E072FC7,  0xBD4FE7FA,  0xBDF62A30,
  0x3DF9EE0F,  0xBD2D857B,  0xBC88D278,  0xBDFC6F63,  0xBD907D68,  0xBCA5EEB3,  0xBDBB8E0D,  0xBC615CBF,
  0x3CFCB540,  0xBBDEB138,  0x3D647441,  0x3D18915B,  0x3A885A6C,  0xBCC733C2,  0xBD3EED1C,  0xBD7C3DD0,
  0x3CF5D3EA,  0xBCA8A1D7,  0x3A9F7AF9,  0x3D2155C4,  0x3C07086A,  0x3D257252,  0xBD180621,  0x3D899D58,
  0x3D0BAA16,  0xBCBC1C90,  0x3E15E532,  0x3DD359F8,  0xBE8556B1,  0xBE981E69,  0xBDC16A24,  0xBDD7FA19,
  0xBE5C85D7,  0xBE1913EB,  0xBD9A0294,  0xBEA207B8,  0xBED932C2,  0xBC577B43,  0x3DD3EE64,  0x3E2121C1,
  0xBE27AB87,  0x3D92DC92,  0x3E23E477,  0xBE6689BC,  0x3DCE90CA,  0x3E56692A,  0x3D2F5739,  0x3CF0DAFE,
  0x3D3C6C40,  0xBB227576,  0x3B3DCC45,  0xBD03970A,  0x3CA20B92,  0x3D4BEEAD,  0x3C95D87E,  0x3DB683F9,
  0x3E414C90,  0x3E43EDD7,  0xBDEF6592,  0x3E22DEAF,  0x3E9B1B45,  0xBE3761F9,  0x3DD0A53C,  0x3E8E77C2,
  0xBE2E36E2,  0xBDEB9A0A,  0x3D95DF19,  0x3D7E4335,  0x3C12C504,  0x3D7F29CB,  0x3D5A31DA,  0x3B7F0409,
  0x3D83EB9A,  0xBC90C2A2,  0xBD7F854F,  0x3CE51505,  0x3D073E6E,  0xB9B91038,  0xBC9B0470,  0xBB95B8A9,
  0xBD1650A8,  0xB88AF05C,  0xBC9D9F70,  0xBD77D43A,  0x3A751DF4,  0xBD828DAD,  0x3B1721EF,  0xBD63D931,
  0xBD1046F3,  0xBC645D59,  0xBDDF62CA,  0x3E1A871E,  0x3DAE0ECE,  0x3C2DC44E,  0x3D8941B2,  0x3CF9D710,
  0x3C936154,  0x3D476B9D,  0xBDC9ED05,  0x3B9CFC9B,  0x3CE193BA,  0xBD13555C,  0xBC9ADA52,  0xBC3472EE,
  0xBD4E37A9,  0xBC9CB3D6,  0xBCEF8C9F,  0xBD52E92F,  0xBC1358F1,  0xBD0CA7D2,  0xBCA90FA0,  0xBC86B8EB,
  0x3E0261BF,  0xBC817C19,  0xBD46F872,  0x3E0F6392,  0x3D898DC0,  0xBD25BEBF,  0x3E1AB6A5,  0x3E8042E5,
  0x3E64825C,  0xBC7708F6,  0x3E02BB77,  0x3D553EF3,  0xBEA45DDD,  0xBE295F88,  0xBE1F3B84,  0x3DB81B12,
  0x3DC1705C,  0x3DCCF94E,  0xBCAB85CB,  0x3DE1EE22,  0x3E35F7DF,  0xBD3836F0,  0x3D8C6CA4,  0x3DFAFC5B,
  0x3D57816F,  0x3DFBE607,  0x3CE6631A,  0xBD5ED393,  0x3E3B6793,  0x3E5AEF39,  0x3DBF366F,  0x3E908C1A,
  0x3EE07F91,  0xBDA8510A,  0xBE09B95C,  0xBD915A66,  0xBD920AFB,  0xBDB0249A,  0xBC9C944D,  0x3DAE531E,
  0x3D47512C,  0x3E5F95BA,  0xBE440919,  0xBE0E894D,  0x3BD0F158,  0xBE3A4F27,  0xBD79C6C5,  0x3DAD6F17,
  0xBE09C95F,  0xBD73F787,  0x3CAA4FF2,  0xBDFE0CB0,  0xBE06B67D,  0xBE17EA8F,  0xBDE89284,  0xBE40CBB7,
  0xBD82F412,  0x3D15067C,  0xBDD513FA,  0x3E13FDEB,  0xBEFAB1A6,  0xBEAE4E73,  0xBE67E5E3,  0xBEA6250C,
  0xBE51E84A,  0xBD7141D5,  0xBE9F486B,  0xBE562B2D,  0xBD5445C3,  0x3E0B9F2B,  0xBCD10849,  0xBDFA2320,
  0x3E696EBB,  0x3C96B5E9,  0xBC8D5378,  0x3ED1367F,  0x3E5FBCF6,  0x3E329A8D,  0xBD418A86,  0x3CD8A3C0,
  0x3C31DA5C,  0xBD1F2180,  0xBCCF6997,  0x3C2EEBAF,  0x3A8C64D3,  0x3D2D197B,  0xBD36E2EA,  0x3E964237,
  0xBC2B0E97,  0xBE0E49B0,  0x3EAEFFAD,  0x3D692DB9,  0xBE2B3A34,  0x3EE00C3C,  0x3EA023A6,  0x3D20D1F6,
  0x3D6E69CC,  0x3E144AEF,  0x3CAD4377,  0x3DEFF19D,  0x3E684F9D,  0x3E83262C,  0x3E5D6B55,  0x3ECFBDBD,
  0x3EDD5025,  0xBC22703D,  0x3D288F6B,  0x3D0D7A0A,  0xBD6736F1,  0xBB1A8454,  0x3DFA0C52,  0xBD2038A9,
  0xBCA1B226,  0x3D18AC35,  0xBD62B10D,  0xBDE5F136,  0xBDAC5D00,  0xBDCD71BF,  0xBD929675,  0x3CF5F5FE,
  0xBD780246,  0xBAFE9DD2,  0xBD1D0567,  0xBD88C788,  0xBDB274E0,  0xBDEDB886,  0xBDE5F6D8,  0xBDE9E7E8,
  0xBD6D37FB,  0xBE315AA0,  0xBE5E02C9,  0xBE31FAD4,  0xBC0834AE,  0xBC7BAF35,  0xBD388037,  0xBD7B0E3D,
  0xBD8BAF05,  0xBCAF0407,  0xBD750D06,  0xBCA47935,  0x3C48A9DC,  0xBE0951C6,  0xBE085344,  0xBD83DE74,
  0xBDB026FA,  0xBD0083C8,  0x3C2B6228,  0xBDBFD0E6,  0xBDBC7B9F,  0x3C9525CD,  0xBE5BC268,  0xBE425D8C,
  0xBDE225E4,  0xBDD6AD88,  0xBE40B978,  0xBE89E427,  0xBE6B60B9,  0xBE993B30,  0xBEAB213E,  0x3E391CFF,
  0xBC36C56F,  0xBD9C94B0,  0x3E1B3E15,  0x3CCA4FA4,  0xBDFCBEB2,  0x3E339C94,  0x3E568A71,  0x3D3C1F01,
  0xBE33F136,  0xBD87578E,  0x3E423BC2,  0xBE6E8EF9,  0xBE806FF7,  0xBDFF0CBD,  0xBE3755C6,  0xBE869CD8,
  0xBE25C41F,  0xBD006541,  0x3D2D08EB,  0x3C4B76D2,  0xBD5C6405,  0xBD984F19,  0x3DD8F304,  0xBD497023,
  0x3C589B71,  0x3DC84F9C,  0x3E24F1FF,  0x3E19FB0A,  0x3E9CE251,  0x3E217161,  0x3E2D4FC6,  0x3E330A50,
  0x3E68B7DB,  0x3E2CFBD1,  0x3E01DD29,  0xBC02E636,  0xBDFE36F4,  0xBDB5BAC8,  0xBE784F61,  0xBDE1D698,
  0x3A911BAE,  0xBEB1CA51,  0xBE535C07,  0x3DA6974E,  0xBCFFC143,  0xBDC62DBD,  0xBC2C185F,  0xBCD6BDB6,
  0x3C2217F5,  0xBE169AB8,  0xBED93E05,  0xBED817DB,  0xBEAA12F8,  0xBDBAE94D,  0xBD12AA37,  0xBD51DE43,
  0xBE3922CA,  0xBDC4F37B,  0x3D9A11F4,  0xBE2CE7AA,  0x3D72C799,  0x3E6A18AE,  0xBD435901,  0xBBD67B1D,
  0x3AF9A5AD,  0x3C60A72A,  0x3CABCC11,  0x3D2D2C9A,  0xBC16DBDE,  0x3CD35A15,  0x39C6BCBD,  0xBD73FBEC,
  0xBD354B0E,  0x3D8B7FC1,  0xBE2F3F2F,  0x3C94577A,  0x3E59A0EB,  0xBD4CA421,  0x3E29F483,  0x3ECB908C,
  0xBC83D6DD,  0x3DAFD1FA,  0x3E94628A,  0xBD687CDC,  0xBD2C9C23,  0x3D210CC9,  0x3DA5C2F4,  0xBC9E8A69,
  0xBAD1B2B0,  0x3DB89981,  0x3D793A7C,  0x3D8B0EA1,  0x3D1F6593,  0x3D5AE5B5,  0x3DBF86D3,  0x3DAB3EAC,
  0x3D1C0349,  0x3DB1BE76,  0x3B63EF2D,  0xBD0D7937,  0xBD4BB47D,  0xBD3D7222,  0x3C59AF99,  0xB9DB2ECB,
  0xBD327220,  0xBD95E15E,  0xBDDA737C,  0x3DD9FB56,  0x3D502E96,  0x3CAC4EAC,  0x3E0CAF68,  0x3B793F4F,
  0xBD123B8F,  0x3DC850B2,  0xBD2CB0D9,  0xBD5A1609,  0x3DB098EB,  0x3D1BF14D,  0x3DE8478A,  0x3DEB1CE3,
  0x3D3C89C9,  0x3DD31DD1,  0x3D5F687E,  0x3D4BA803,  0x3D91712D,  0xBBB4332B,  0xBDC0757B,  0xBDFFE5EF,
  0xBDF41307,  0xBD8AB488,  0xBDE9812F,  0xBE4EF985,  0xBE4819C8,  0xBE2AEECB,  0xBE3243DD,  0xBE526E8C,
  0xBE813CCC,  0xBE6F831B,  0xBE029DD9,  0x3C7F367D,  0xBDF80F46,  0x3E5598FD,  0x3EE7DC54,  0xBD1317FC,
  0x3C7DD648,  0xBAC342C8,  0xBD09AC17,  0xBCB57992,  0x3E153F8F,  0xBC724E48,  0x3E25AF27,  0x3E74E2F5,
  0xBE179751,  0xBE79E0F5,  0xBE2CD092,  0x3CD93889,  0xBDEEBC8B,  0xBE1CB596,  0x3D8B0371,  0xBCEAF7C3,
  0xBE09BD2C,  0x3E01AD2D,  0x39BB539D,  0xBD4F774C,  0x3DD93F3C,  0x3ABA7B70,  0xBDF7D039,  0x3D90C182,
  0xBC4C47FA,  0xBD569D41,  0xBCF63A59,  0x3C5E3C8A,  0xBC9B7186,  0xBD334E9D,  0x3B864945,  0x3D5A3D71,
  0x3C1085F5,  0x3D3E1A6F,  0x3DA2327F,  0x3E109124,  0x3CC470A6,  0xBD285987,  0x3DFD1D99,  0x3D60D01E,
  0xBE392BE7,  0x3DEBC66C,  0x3CDBC15D,  0xBE232B9E,  0xBE358DBE,  0xBD2BE67B,  0xBD53946D,  0xBE479B27,
  0xBD695F0B,  0x3DD9BF85,  0x3E4AB7E6,  0x3E342F8D,  0x3E01D1E9,  0x3E9A88CC,  0x3E556F85,  0x3C4BEDAC,
  0x3E15ED6C,  0x3DEFDD2C,  0xBD7623A4,  0x3D336F86,  0x3DB86C20,  0xBDC5F2F9,  0xBBD7E8C0,  0xBCF0466E,
  0x3CABCC54,  0x3D184ACB,  0xBC7D8D2B,  0x3D44F6E8,  0x3D043C2D,  0x3C2D31EA,  0x3CB64F7D,  0x3ED9EB27,
  0x3E843EE0,  0x3D8D926A,  0x3E82C42E,  0x3DEFE0C7,  0xBD74B7BF,  0xBB2AC9A3,  0xBC1969BB,  0xBE0D51AF,
  0xBC2D021D,  0xBE8A3A0D,  0xBE418E5F,  0xBD9DAA41,  0xBE0423C7,  0xBE80DDA2,  0xBC955ED7,  0xBD3CF5C5,
  0xBD199CEF,  0xBD42FDFF,  0xBD7F093C,  0xBCF6AD40,  0x3CDE8B75,  0xBB356CA6,  0x3D0B04BD,  0xBD046336,
  0x3B45F606,  0x3CF051A0,  0xBDAEE384,  0x3C045843,  0xBD108A1C,  0xBD8CA4AD,  0xBD5CD306,  0x3CF39CC1,
  0xBA4D1A4C,  0x3B88FD73,  0x3BFFA951,  0x3A7041F0,  0xBD9EA883,  0xBDA22B17,  0x3D3A5DE2,  0xBCCF7B42,
  0x3C289352,  0x3DB6D485,  0x3CD65DAF,  0x3D511341,  0xBCCB29EC,  0x3CBB00EB,  0xBCD11C32,  0xBC61C6F0,
  0xBD467881,  0x3CD7CEB1,  0x3D30FA8F,  0x3D4CAFFC,  0x3B8C05BA,  0xBDEAEFBA,  0xBD5099E9,  0xBD04F35F,
  0xBDD8BDF9,  0xBE135C8C,  0xBBDA5A0F,  0x3DC43C7A,  0xBD0C3FCC,  0xBD8EFF18,  0xBDD7B356,  0xBE1D7417,
  0xBEB03A86,  0x3E0FF649,  0xBD87F36F,  0xBDFC1A29,  0x3E06F909,  0xBE35EEAA,  0xBE3AA313,  0x3E1B7B8F,
  0x3E411A80,  0x3DFF5FE1,  0x3E0FDF25,  0x3DDDFB10,  0x3D83353B,  0x3D20C86F,  0xBD00132F,  0x3D0B7B61,
  0xBEBEF9D9,  0xBECE00EB,  0xBEC2B604,  0xBD9D6AD2,  0xBD9B572A,  0xBDA23A51,  0x3D71D541,  0x3D91CBBE,
  0x3D251A42,  0xBC0E5D14,  0x3E3AC9E7,  0xBD1CEE7B,  0x3DFD44C9,  0x3A736C39,  0xBE9B748D,  0x3E141D63,
  0xBE370F1A,  0xBF027A6B,  0x3D6968B3,  0xBDA9D9D8,  0xBE47B879,  0x3CED5CAF,  0xBD4D4146,  0xBDD54CBF,
  0xBC008C1F,  0xBDD0F1AD,  0xBDB5DDD2,  0xBCC0B03A,  0x3EA6BD7C,  0x3E0DDC5F,  0x3DB7DBCE,  0x3EB4A60F,
  0xBB1DA987,  0x3E411889,  0x3BEB0A79,  0xBEACF9F2,  0xBE90D06A,  0xBE684E35,  0xBE571875,  0xBCCBCEAF,
  0x3DB31699,  0xBDCD167E,  0xBE316539,  0xBD39C41B,  0xBE891A4F,  0xBE6612CB,  0x3E5F74C1,  0x3E73097A,
  0x3DC2276F,  0x3ECB361F,  0x3E23EDEF,  0x3E803074,  0x3EBED50D,  0xBDFFD45B,  0x3D1133BC,  0x3D1D3303,
  0xBAEA7817,  0xBD371612,  0xBC69FFBB,  0xBB106998,  0x3D2C6175,  0xBC636B1C,  0xBCDA76D4,  0xBE56A9E4,
  0x3E8CEAAE,  0x3EA33011,  0x3DADC4B5,  0x3F0C7C9F,  0x3ED17640,  0x3EAF33FF,  0x3F1A041D,  0x3E94FC70,
  0xBE937866,  0xBEA9BB8B,  0xBEB00C11,  0xBCE3EBE8,  0xBD838D66,  0xBDDF58B2,  0xBD840F96,  0xBD75D7ED,
  0xBA82F080,  0xBD00C43B,  0x3BF9BF27,  0xBD86FB49,  0x3D0D0551,  0xBB7A0A75,  0x3CD18CF1,  0x3D465086,
  0xBC6BE663,  0xBC9CAABC,  0xBD8E80B1,  0x3BC8A50E,  0xBD1F506D,  0x3D868A36,  0x3CE9B044,  0x3A98C1BA,
  0x3BE10322,  0x3BE8E0B7,  0xBBE324CC,  0x3C2AAEBB,  0x3BCD105D,  0xBE037F1C,  0xBC8D32BE,  0xBDE34768,
  0xBD39F3E7,  0xBE34DE44,  0xBDC43142,  0xBD8CD099,  0x3D020C78,  0xBC2B6A5B,  0xBDB99082,  0xBD7097BA,
  0xBD98C414,  0xBD1DF72C,  0xBC111C7B,  0xBCF6FBEA,  0x3BB2CF2D,  0x3D6EBD87,  0x3C328991,  0xBD3E4419,
  0x3E5EDD34,  0x3E802652,  0x3AEE5570,  0x3D4D92AA,  0x3D8E0BC4,  0xBE016592,  0xBEC5B094,  0xBE049BC4,
  0x3E814014,  0xBE53A85B,  0xBE5EE70C,  0xBE1B6180,  0xBD91D51F,  0xBDA94352,  0xBE39E4C3,  0xBC3BACD7,
  0x3E513B28,  0x3E92C0F4,  0x3D12F6C8,  0x3ECE4A18,  0x3E8BC74C,  0x3E6C2057,  0x3EC06FFA,  0x3E7D8A61,
  0x3CBF1C7A,  0x3C1360C0,  0x3DD14018,  0x3DBAF90D,  0x3D0FD1AB,  0x3B64D3EB,  0x3CDF780A,  0x3C0C31BF,
  0xBD16C69D,  0xBDA5B41C,  0xBDAA520A,  0xBDA22AE8,  0x3D00D7C8,  0xBD506B04,  0xBD85E8BC,  0xB92B2246,
  0x3D04A2D1,  0xBDE58A06,  0xBC80C246,  0xBC6D43EA,  0x3C86A968,  0x3C9548C2,  0xBCF98DA2,  0xBCA5678A,
  0xBD4B58B4,  0xBCE77D1B,  0xBDA64F14,  0xBDD574B6,  0xBDF549E5,  0xBD72A26E,  0xBDD04D69,  0xBD98418D,
  0xBD41132C,  0x3CE3D206,  0x3C116058,  0xBE001845,  0xBDCA650E,  0xBDDB1D18,  0xBDC1963D,  0xBD9F48D7,
  0xBDDC5310,  0xBDBB7DA8,  0xBD6C8BDF,  0xBE0FEF95,  0xBDE40F3B,  0xBD992172,  0xBDA843C1,  0xBDC961F6,
  0xBC84E942,  0xBD90F0CE,  0xBDB3CC74,  0x3D3498AA,  0xBBCE5D67,  0xBDA837B5,  0x3C9C63BD,  0x3C85AE19,
  0xBBBEB4B2,  0x3D2E9766,  0xBD4B54C6,  0xBD4577A6,  0x3B6FBA7C,  0x3D16C284,  0x3D140CDF,  0xBDFDEB29,
  0xBE16536C,  0xBDF1C320,  0xBDEC9413,  0xBE0C92A2,  0xBDA3434F,  0xBB9145CE,  0xBD1CD03B,  0xBD94E1ED,
  0xBD6D6318,  0x3CBC5E7A,  0x3D08D738,  0xBB0AE1BC,  0xBD9FD1E7,  0xBBDBE55B,  0xBD31470A,  0xBDBFCFD7,
  0xBDA24F65,  0x3C288E87,  0x3D118C19,  0xBD153EE0,  0x3C331486,  0x3C05C651,  0xBB45408C,  0xBC9C388E,
  0x3C8A14A6,  0x3C190E67,  0x3C786054,  0xBBB35B8A,  0xBD4B4ABF,  0xBD3B3E9E,  0xBD6788FF,  0xBD41C612,
  0x3D07D980,  0xBC73D648,  0xBBBCC542,  0x3B3A0AC4,  0xBC5F68FD,  0xBC7DB5A2,  0xBD961C8C,  0xB996B829,
  0x3C600F47,  0xBAB09BCD,  0xBD2CA74A,  0xBC29AEA8,  0xBC8CF5C8,  0xBD39D1A8,  0x3A2932FB,  0xBB6E8BA9,
  0x3CE3A69C,  0x3CCEE90B,  0x3C8E006C,  0xBBCBEB6D,  0xBCB48A4F,  0xBB4DD548,  0xBC97EDE3,  0xBD003FAE,
  0xBD216A32,  0x3C720319,  0x3B9624B3,  0x3CCFFEA2,  0xBCAEA511,  0xBD220418,  0x3E2D499C,  0x3CD6DAB2,
  0xBE18C673,  0x3E71C9E4,  0x3DA6F99C,  0x3BE52E5E,  0x3E7E44F4,  0x3E34044B,  0x3DF6A45B,  0xBD8DF2F3,
  0xBD999A24,  0xBD8BBEF8,  0xBD74599F,  0xBC3D90A8,  0xBB9706D6,  0x3CEDC38C,  0x3B1C27BF,  0xBC8556DF,
  0xBD89A34D,  0x3EC0AC1E,  0xBD528BB6,  0xBE98607C,  0x3E82D5A6,  0xBD37B80E,  0xBE4350BC,  0x3E58A48B,
  0x3D8DFBBC,  0xBE262FFC,  0xBDFF1BDB,  0xBC8766BA,  0xBE7F4EE0,  0xBE83EF2B,  0xBE459235,  0xBEC83948,
  0xBEB3C556,  0xBEB5A430,  0x3E2AEAD1,  0x3DF8858E,  0xBCC2119B,  0x3D56AC7B,  0x3C027011,  0xBDD02F19,
  0x3DAF9BE6,  0x3E1FF4C9,  0x3D4222A4,  0xBE0E6D27,  0xBE540BC2,  0xBDECE944,  0xBE002654,  0xBE2F90A4,
  0xBE7C882E,  0xBE6E2B43,  0xBEC00397,  0xBEBFF942,  0xBE82132B,  0xBEA8D1E5,  0xBED60DE6,  0xBED7A083,
  0xBE00A64F,  0x3C8FD92A,  0xBF15F9CF,  0xBE807EDF,  0xBCEE23FA,  0xBDAA1522,  0xBE6AA99B,  0xBDEC744B,
  0xBDB3F10A,  0xBE2F6A97,  0xBE40DD93,  0xBE21795C,  0xBE94F355,  0xBEEC0E75,  0x3D27F654,  0xBD0054A9,
  0x3C19A088,  0x3D19A55E,  0xBC5168EC,  0xBCACEEFE,  0xBD25147C,  0xBC54BD63,  0xBD43F6B3,  0x3D6D4FDE,
  0xBE3095E2,  0xBE172755,  0x3E91D4F1,  0xBD9B997F,  0xBE5EB237,  0x3E3D5089,  0xBD7D38E4,  0xBEC91314,
  0x3EF5D096,  0x3EC41BBC,  0xBCC2DD03,  0x3E76013E,  0x3E57F5AF,  0xBD23819B,  0x3E547958,  0x3E812039,
  0x3D6189E3,  0x3D94AD5C,  0x3D6697CC,  0x3D135064,  0xBABF9C57,  0xBD5D7938,  0xBCF11B92,  0x3DA63381,
  0x3C3AB628,  0xBC7135A5,  0xBD115249,  0xBC240A4D,  0xBDC21E11,  0xBD6E7B9F,  0x3CDCAC6E,  0x3CE5F9AE,
  0xBDEE152C,  0xBD543057,  0x3CA8CB3C,  0x3EC3AFB4,  0x3E8E2E5B,  0x3E6D73A6,  0x3E9B7799,  0x3E306504,
  0x3E3A5A78,  0x3E8A844B,  0x3E85DEE9,  0x3E7ADF91,  0x3E07CF36,  0x3DD493D9,  0x3DCB9598,  0x3CA989D0,
  0x3CD9DD53,  0xBA95A554,  0x3D997BE0,  0x3D6D4E2A,  0x3D1AA8D7,  0xBDAD7216,  0xBD5B123E,  0xBE0BD1F8,
  0xBD3B9609,  0xBD5D2551,  0xBC8AF784,  0xBDE075A9,  0xBDA5A938,  0xBE0EF329,  0xBF1B95D2,  0xBED0272F,
  0xBE34423A,  0xBD06528B,  0x3D1F0FBE,  0xBBF13FA1,  0x3EBFD153,  0x3E3918A0,  0xBEACB1D7,  0x3D8FD209,
  0xBD93B784,  0xBDAA441B,  0x3E711F04,  0xBBAD78C0,  0xBE579AE3,  0x3E760611,  0x3DE4BEA4,  0xBE25D689,
  0xBEBF68AC,  0xBE035CCB,  0xBDF88378,  0xBDEF8C3C,  0x3E822F0A,  0x3E2790DA,  0x3EBDF84B,  0x3F17C959,
  0x3EDA80AA,  0xBCF03E09,  0x3D873740,  0x3DF1556D,  0xBE120EFF,  0xBDC14EBF,  0xBE2F2E46,  0x3D7B3F09,
  0xBCC664A4,  0xBE8FFEE3,  0xBE4AA4E7,  0xBEA5F88F,  0xBEA1BC31,  0x3D93666D,  0xBC62500F,  0x3CD1600D,
  0x3E21A762,  0x3DC691E4,  0x3DB219F0,  0xBD625F78,  0x3E1BA244,  0x3E8B37D2,  0xBEAB86F5,  0xBE3EB8C6,
  0xBE728037,  0xBE905451,  0xBEA710C6,  0xBEDD92D2,  0xBDCDCE94,  0x3D06E8E3,  0x3EE0C007,  0xBEC48766,
  0xBE46F695,  0x3EACAFDC,  0xBDD647D0,  0x3D4B7F5F,  0x3EDF3FDA,  0xBE171B6D,  0x3D6D997E,  0x3E471768,
  0xBE8FC582,  0xBD51DEFD,  0xBD995209,  0xBDAB0DA7,  0xBD9B7B5A,  0xBE1D0EF4,  0xBD12F5A8,  0x3D36C2F3,
  0x3D3DC0C5,  0xBC8040DF,  0xBCE4DBC9,  0xBD3DE564,  0x3CC66E87,  0xBB7415D3,  0x3C1FE5A2,  0xBE31FB93,
  0xBD871891,  0x3E8C7E73,  0xBED73314,  0xBE5472BD,  0x3DA4DE3F,  0xBE85AEA7,  0xBE3C8DE6,  0xBE24D7E3,
  0xBEA8BB1C,  0xBE92C7D5,  0xBE6ABF25,  0xBD66E716,  0x3E1D8F27,  0x3D3ED27B,  0x3EA95E28,  0x3ED398FC,
  0x3EAE2FD4,  0xBE08905A,  0xBD901AB4,  0xBD635905,  0x3CC2CF4E,  0x3D15FB99,  0x3CCE53CB,  0x3DFAE52E,
  0x3DA3C158,  0x3D61B30C,  0xBDD0661D,  0xBBAF94AE,  0x3D5B295B,  0xBDCC0527,  0xBD63F761,  0xBC9EFC5F,
  0xBCF3C20E,  0xBCDEA691,  0x3DB1D962,  0xBD7C3D8C,  0xBE261F3A,  0xBE454D33,  0x3D9574FC,  0x3D8B2602,
  0x3D8D0811,  0xBDD2CA07,  0xBD56BC3D,  0x3CD91B72,  0xBE298625,  0xBDB1114B,  0xBE090BB0,  0xBD0DF249,
  0x3C8DF951,  0xBDC545E1,  0x3D177AF6,  0xBC9F68E4,  0xBD1D4421,  0x3D38707A,  0x3E1E499E,  0x3E804539,
  0xBD99E731,  0x3CCA41C4,  0x3E532A77,  0xBDF6DEE9,  0xBD546AA3,  0xBDBF5371,  0x3D29DC07,  0x3E811BC9,
  0x3EECF075,  0xBE7F63D5,  0xBE477CC4,  0xBDDF10B0,  0xBE8B7D1B,  0xBEB4F19E,  0xBEF71E68,  0xBDAF2ECF,
  0xBD98A0C2,  0x3DBBA1A9,  0xBE2978AF,  0xBD33FD5D,  0x3D8A6376,  0xBD479EC7,  0xBD9790CE,  0x3D36701E,

};

const uint32_t BIAS_CONV3_BITS[32] = 
{
  0xBE19E299,  0x39A61A03,  0xBD41E81E,  0xBDAD7A6C,  0xBE072AD1,  0xBE317F98,  0x3CE95F48,  0x3DA80976,
  0x3DAC017B,  0x3E1EC58F,  0xBE0FA6AF,  0x3DD111F1,  0x3D40415A,  0x3D2CD059,  0xBD30AB00,  0xBDED2C40,
  0xBC14096F,  0x3EB680DB,  0xBE60DF41,  0x3F38BDDB,  0x3E2263B1,  0xBD1B9269,  0xBDCB09CA,  0xBE1AC889,
  0x3CF18080,  0x3DCB9BEA,  0xBE2966E3,  0xBD6F8EBF,  0x3D176056,  0x3A19EF90,  0x3C693401,  0x3DA7A20B,

};

const uint32_t WEIGHTS_CLS_BITS[320] = 
{
  0x3F4A3661,  0x3CB18A87,  0x3D690D61,  0xBE1E2472,  0x3F8F79D7,  0xBDD47F25,  0xBF15619D,  0x3EBDC2FF,
  0x3E3A7141,  0x3F3A5AB1,  0x3E73A7CD,  0x3E30BC0E,  0x3E583336,  0x3F114D2D,  0x3E33C0EF,  0xBE431353,
  0xBE0A7948,  0xBFB7AC03,  0x3BBDF144,  0xBFC964B4,  0x3D3B844C,  0xBC77B3B0,  0x3F4FB925,  0xBDC35403,
  0x3EA29030,  0xBF3EB547,  0xBDDD48B2,  0xBD237CDC,  0x3F487B8B,  0x3CB7A39C,  0xBF1F8FF3,  0xBDCACE57,
  0xBF17B1ED,  0x3D43C05B,  0x3E114AD0,  0x3E431B4A,  0xBF34F246,  0x3EF4B455,  0x3F031A7F,  0xBF9748DD,
  0xBF7C529F,  0xBFE02B0A,  0xBF817C0A,  0xBF610D63,  0xBE04AA5F,  0xBF2A85C7,  0xBDE514AD,  0xBF118963,
  0xBE7F48A8,  0x3F4801D3,  0x3EF3C7DE,  0x3F3100BE,  0xBF20E285,  0x3ED50214,  0xBF77DB0E,  0x3F040C29,
  0xBDA1815C,  0x3F4F2184,  0x3EAB5166,  0xBE037D79,  0xBFE78D94,  0xBCA9B717,  0x3F1A5941,  0xBEB61F9D,
  0xBE6CB411,  0x3C7EC3A3,  0xBE8B3C47,  0x3E1F6973,  0xBF06D18B,  0xBBF9DA7B,  0x3FC3BDC5,  0x3F1BEC30,
  0x3EDC52CC,  0xBD8AF94E,  0xBD49A3E2,  0x3B04838D,  0x3E03A67C,  0xBE4EB53B,  0x3F4CC1BC,  0x3F64F9AB,
  0x3F907E2B,  0xBEF9423A,  0x3B34885D,  0xC01BD8C8,  0x3E175023,  0xBC1A06F5,  0xBF0D0986,  0xBF8C2318,
  0xBEDB1F10,  0xBDD2F9D5,  0xBE2205B5,  0xBE956E8C,  0x3DF123EE,  0xBDCFD487,  0x3D892A51,  0xBE72D148,
  0xBF0FFFFB,  0xBBF568C5,  0xBDAF166F,  0x3DF1BD0A,  0xBF8EF1DC,  0x3E8E8FB6,  0xBF14CAF3,  0x3FB83958,
  0x3FCCDC0A,  0x3EB206A0,  0xBED2BA55,  0x3F586764,  0xBF179AE3,  0xBE4A9BD6,  0xBF31F3F9,  0xBDCCC41F,
  0xBEBB1ED0,  0x3FAAECB8,  0x3E00A823,  0xBFB304B1,  0x3F80404A,  0x3E9D4C94,  0xBEB06EA1,  0xBF490642,
  0x3E311AC8,  0xBDF83374,  0xBE950F13,  0xBEA5DF2A,  0x3F0B572B,  0x3E69C689,  0x3FC6D627,  0xBFC008F3,
  0x3F49966F,  0x3CD5D322,  0xBEA4E9C4,  0xBE9FC5F1,  0x3FA8A40D,  0xBE3F9A9C,  0x3F664E46,  0xBFA6EE8C,
  0xBF8E172A,  0x3EB98395,  0xBFC91006,  0xBF1A4765,  0x3F2756A9,  0x3EB16563,  0xBE632B5B,  0xBED1612A,
  0x3E9C1B86,  0x3EE162A6,  0xBFE63E3A,  0x4032D942,  0xBE476567,  0xBEF349DC,  0x3DA6E847,  0x3F08CF29,
  0xBEC1A6F8,  0xBF41DA87,  0xBEDEC43A,  0x3E73D44E,  0xBE1BB19D,  0x3EAC5680,  0x3E56B328,  0x3F6E3A41,
  0x3CA37746,  0x3CB0C1A4,  0x3E900CF1,  0xBEAD9CF4,  0x3E81A1B3,  0x3F42CCAA,  0xBF95D4B8,  0xBF3BA8FD,
  0xBEC846BE,  0x3EDB9F9E,  0x3EAED737,  0x3EAE213E,  0x3DE9DE63,  0x3E03364E,  0xBFC03AD2,  0x3F8019CF,
  0xBF4EDD90,  0x3E87E1E7,  0x3F1807FE,  0x3D76D70C,  0x3D473E5C,  0x3FCDFC90,  0x3F090F37,  0x3FCE4B55,
  0x3E48AD29,  0xBEBAC3EC,  0x3F2BC7EC,  0x3E67E28F,  0x3EDA815E,  0x3E85E09B,  0xBF84679E,  0xBEBFAD8B,
  0x3E54A94C,  0xBD439417,  0x3F054B2D,  0xBF207E0B,  0xBDB5462C,  0x3F5F0AD4,  0x3FE565F5,  0xBE83E43C,
  0xBF470F66,  0x3E5AFB01,  0x3F499E4D,  0xBE5EBFE4,  0xBC8243B7,  0xBC05057F,  0xBE18FEF6,  0xC03E0725,
  0xBF116FFC,  0xBF9A7FDC,  0x3FB9AB22,  0xBDE35930,  0xBF87440F,  0x3E9B7697,  0x3D5D3728,  0x3E9E63C7,
  0x3DE6C365,  0xBF514A2C,  0xBE8C154A,  0x3F5BFF4B,  0x3EA22C4D,  0xBE821A61,  0xBEAB8A37,  0x3ED055A6,
  0xBF86463D,  0x3C099E55,  0x3D5E5D1C,  0xBF1D4F32,  0xBFA3679E,  0xBF126C87,  0xBEB6E5E7,  0xBD4A3D7D,
  0x3F8C5562,  0xBF4DAD46,  0x3EB0D87E,  0x3F207182,  0xBEDB7ACA,  0xBF1F3949,  0x3F7670DC,  0x40013D0A,
  0x3ED44934,  0x3E68D30D,  0xBEB020EF,  0x3FE76F47,  0x3EE1DCFB,  0xBF79F63E,  0xBF35609A,  0xBF8382A9,
  0xBEF1957D,  0x3F23CCAE,  0xBF51B5C5,  0xBE5AE645,  0xBF804673,  0x3D84A216,  0xBF2028C9,  0x3F497895,
  0x3EFB726C,  0xBC390C64,  0x3ED5954D,  0x3F2B9DEF,  0x3F6B83B8,  0x3D8F6DC6,  0xBFA2B1DA,  0x3EFDE6AE,
  0x3DE47C02,  0x3D322B67,  0x3EE1D255,  0xBD8AB53E,  0xBDD53BDA,  0x3EF9F964,  0x3F007E60,  0xBDEB3AB5,
  0xBF12721E,  0xBF1C76CB,  0x3F6CF367,  0xBF601E76,  0x3E1023BE,  0xBDEE9086,  0x3FCE50E0,  0xBED9D58B,
  0x3EFE58B2,  0x3F751C2B,  0x3E4B3A85,  0x3DBEBF5C,  0xBE5DC483,  0xBE15066A,  0xBE81F5BF,  0x3EC0D42F,
  0x3E527F60,  0xBCBE588B,  0xBF3CD334,  0x3F531F8A,  0x3DB21B68,  0xBFC4A95B,  0xBF3D9E03,  0x3F0E4C49,
  0xBE020C00,  0x3F1FA074,  0x3F861B25,  0xBDBA10F8,  0x3EA2E0A5,  0x3E3279B8,  0x3E868FFE,  0x3E93592D,
  0x3F3AF2EC,  0x3F28696B,  0xBFC2760A,  0x3F84EED9,  0xBDD09378,  0xBF832974,  0xBEC0F703,  0x3EA79A8D,
  0x3DE67D33,  0x3F111652,  0x3F5DF23E,  0xBECC4592,  0x3F864CD7,  0xBEAAE174,  0x3E9495AF,  0x3CC12582,

};

const uint32_t BIAS_CLS_BITS[10] = 
{
  0xC03194EE,  0x3E1E46C6,  0x3EE7AEEF,  0x3F36FAE0,  0x3F7EE343,  0x3F507B12,  0xBEC7DAA9,  0x3F1E6605,
  0xBE26A0FE,  0xBED7C5EA,
};

#endif // WEIGHTS_H
